int32_t weight[] = {
0xF108E509,
0x0000000B,
0x02231B4C,
0x00000006,
0x10F3EEE9,
0x000000D4,
0xCD032BFC,
0x00000018,
0xF4D9B1DE,
0x0000001D,
0x3A45F31B,
0x00000037,
0x30164238,
0x00000015,
0xC7E9E02F,
0x000000C6,
0x04BCCABD,
0x000000F7,
0xCE111E05,
0x000000FB,
0xE9150628,
0x00000009,
0x2F57F2DF,
0x0000002C,
0xB23E47CC,
0x000000CE,
0xF53A5C10,
0x000000E2,
0xD7F3243C,
0x000000BF,
0x0EF61F02,
0x000000FF,
0xE6FEF028,
0x00000024,
0x23071417,
0x000000EB,
0x13E903E1,
0x000000F0,
0xF2DA1010,
0x00000001,
0xBDFCD1F6,
0x000000FA,
0xE5E8E532,
0x000000BB,
0x05D9E507,
0x00000028,
0x365615F1,
0x00000049,
0xF1F52B29,
0x000000F5,
0xDC42FD1F,
0x000000F7,
0x6B382022,
0x00000081,
0x6547DD05,
0x0000000C,
0x59F8E0C3,
0x000000F1,
0xF1B8AFB8,
0x00000052,
0xEDF20C15,
0x0000000D,
0x0FF81126,
0x00000004,
0xE8FBEEEC,
0x000000B6,
0xFC1216FA,
0x00000002,
0xEFE8E7FE,
0x000000FD,
0xF0EBE800,
0x00000000,
0x00EDE80B,
0x000000DD,
0xBEF3F7F9,
0x000000C3,
0x1C2320F3,
0x00000015,
0x1204F706,
0x00000014,
0xFAEAD6D4,
0x000000FE,
0xA8C7ABAA,
0x000000E2,
0xCBD7D0AB,
0x00000004,
0xFF0AFB04,
0x00000008,
0x0B06F8FE,
0x0000000F,
0xFDF3FD08,
0x00000016,
0x251F0219,
0x000000FF,
0xD7011507,
0x000000F4,
0x010C0802,
0x000000F8,
0xEEFBF3FF,
0x000000FB,
0xD4DBD6D2,
0x000000C7,
0xE3EBF3E0,
0x000000F8,
0x2D321508,
0x00000027,
0x36191E1D,
0x0000001E,
0xFEFEFBFD,
0x0000000E,
0x02EDE302,
0x0000002C,
0x16EEE1F8,
0x00000006,
0xB2D7D1D6,
0x000000CF,
0x140BE7EA,
0x00000013,
0xEAEEE3F1,
0x000000FB,
0x1C3A08D7,
0x0000001C,
0x0D00DBFF,
0x0000000A,
0x03F7CFDD,
0x00000021,
0xF4F1E3DE,
0x000000F7,
0xEBF4FD10,
0x000000F5,
0x11160FFE,
0x000000F4,
0xF309080F,
0x000000DD,
0xFCC5BCF9,
0x00000007,
0x04FDF3E0,
0x000000EE,
0xEEFAFBE6,
0x000000EA,
0xE1D9FA1D,
0x00000001,
0xF4C7F7F5,
0x00000007,
0x050409E3,
0x00000006,
0xF60F240C,
0x000000E9,
0x030E112B,
0x000000F6,
0x1E1F0600,
0x00000007,
0xF8EEE1E1,
0x00000005,
0x00E9D9D5,
0x00000001,
0xFBEFF6C1,
0x000000F5,
0xE9EE0EEE,
0x000000F5,
0xD9C00C20,
0x000000DF,
0x010C230E,
0x000000EE,
0xF90D2206,
0x000000D8,
0xF90EE5EA,
0x000000FD,
0x11E9C1F4,
0x000000F5,
0x1419A7B5,
0x00000002,
0x131EE62C,
0x000000E0,
0xF0E11942,
0x000000FF,
0xD6DF1117,
0x000000E9,
0xEDF1FEFA,
0x000000F4,
0x0B1308F5,
0x0000000F,
0xEEE3D2E0,
0x000000FF,
0xF40401F1,
0x000000F3,
0xF4EBF9FC,
0x000000FE,
0xFDF1EAF9,
0x000000FD,
0x071D0E19,
0x0000000E,
0xEA08FDFF,
0x000000F6,
0xD0103C10,
0x000000C2,
0xEE012522,
0x000000E3,
0x01F5E6F7,
0x0000000E,
0xBAD2F5E8,
0x000000B1,
0xBACAE8CF,
0x000000E9,
0xEBE1F4FB,
0x000000ED,
0xFAF7010B,
0x000000EE,
0x2527140F,
0x000000E9,
0x0D1A01F2,
0x00000011,
0x00F1E5E4,
0x00000018,
0xE10A03DA,
0x000000DE,
0x02EDEEEC,
0x00000012,
0xFCF7E9E8,
0x000000FB,
0xCED8D2F3,
0x000000D4,
0x031F231B,
0x000000E6,
0x12182846,
0x000000FA,
0xF3F7FA29,
0x000000FD,
0xE8FF01F7,
0x000000F4,
0xE0E6F3DE,
0x000000FD,
0xB2C0C1D8,
0x000000DB,
0x1F272BEC,
0x000000E9,
0x0F1708D7,
0x00000002,
0x04EE0A1C,
0x00000008,
0xEFFDFBE9,
0x00000000,
0xFFFF170F,
0x0000001D,
0xEAC9FE0A,
0x00000016,
0xFEE90116,
0x00000004,
0x04F0E20A,
0x00000012,
0xFBE7ECF7,
0x000000F7,
0x2713EF13,
0x00000026,
0x16D2E916,
0x0000000C,
0xF2DF80E8,
0x00000000,
0x1012D8FA,
0x000000FC,
0x10F8DD0E,
0x00000004,
0x2CF2D00D,
0x000000FE,
0x220EC915,
0x000000F1,
0x1A08E0FC,
0x000000DB,
0x0519E9DF,
0x000000F5,
0xFB07F3FB,
0x00000000,
0x08EB0316,
0x0000000E,
0x03DAFF07,
0x00000017,
0x04FED900,
0x0000000D,
0x0207FEF7,
0x00000008,
0x14F1F50D,
0x00000010,
0xE9ECDFDC,
0x000000EC,
0xE3F7EBF9,
0x000000E7,
0xE1F1DFE7,
0x000000F0,
0xEFF80001,
0x000000F7,
0xD2F8E3C7,
0x000000DC,
0xCE14F9E1,
0x00000008,
0xC507F8DF,
0x000000DB,
0x082E16EB,
0x000000DE,
0x1813E4DB,
0x000000FD,
0xED0FF7E6,
0x000000F3,
0xCAF71406,
0x000000F8,
0x12C90419,
0x0000000D,
0x10F3C8D3,
0x000000FD,
0xFC08EDE3,
0x00000017,
0xF3F309FD,
0x000000B8,
0xD500FDF4,
0x000000E4,
0x22E0D4ED,
0x00000022,
0x1408F8C7,
0x000000EE,
0xFE0907E9,
0x0000000C,
0xFFF12420,
0x00000000,
0x1EE7F224,
0x0000000D,
0x2220F6F1,
0x000000FA,
0xE61B20FA,
0x000000F2,
0x00EDEA00,
0x00000004,
0x0E221201,
0x000000F0,
0xD0E40D13,
0x0000000C,
0x11EFD422,
0x00000004,
0x14FFD5CB,
0x000000FF,
0x160BF2FD,
0x0000001F,
0xEBE3EADC,
0x000000FE,
0x1C21E8C9,
0x0000001C,
0x082812E2,
0x000000E9,
0xF1D10B0E,
0x000000FE,
0x05EAC1FC,
0x000000DF,
0x201C1404,
0x000000F1,
0xD1E7FAFC,
0x000000F3,
0xDA98E2FE,
0x00000003,
0x02C6BEE3,
0x00000002,
0x08170E1D,
0x00000011,
0x120808FB,
0x000000E3,
0xE1E3FAEB,
0x000000EC,
0x1505F6F1,
0x00000009,
0x081E10EE,
0x000000E9,
0xF0FA1617,
0x000000ED,
0xFFEFE7C7,
0x000000F3,
0xFBE7EFDF,
0x000000D1,
0x00F90BEA,
0x00000016,
0x17201815,
0x0000000B,
0xD7E7F2F7,
0x000000E0,
0xE421190D,
0x000000E7,
0xF5E5E2F3,
0x000000F6,
0xF604EAF2,
0x000000F7,
0xCEDCF2FA,
0x00000008,
0x0DF10102,
0x0000001C,
0x1810FCE5,
0x000000E2,
0xEBF2E7F4,
0x000000E5,
0xFA000E01,
0x00000000,
0x08151404,
0x000000E0,
0xF4FD0811,
0x000000FD,
0xDEEAF0EE,
0x00000002,
0x272C18EF,
0x0000001D,
0xF216120C,
0x000000DE,
0xD1C1CEEC,
0x000000EA,
0x100B0AFF,
0x0000000E,
0xECF7EEFE,
0x000000EC,
0x0C110BFE,
0x0000000C,
0x1E2114F7,
0x00000023,
0x0E0EF8FE,
0x000000F5,
0xCEE4E21F,
0x000000D8,
0xFF10F4E7,
0x000000E7,
0x040D010B,
0x000000EE,
0x0BFEF3F3,
0x000000FF,
0x17060401,
0x000000F9,
0xF800050D,
0x000000EE,
0x0E1F15F5,
0x000000D1,
0xFF181A20,
0x000000E9,
0xD8F9E5F5,
0x000000EF,
0xF703DEDE,
0x000000E0,
0xD4E0EFF0,
0x000000D0,
0x031A190C,
0x00000001,
0xF3E7EE04,
0x000000FF,
0xE8CA0109,
0x0000000E,
0xCBC71510,
0x000000FA,
0xD0E5FF0D,
0x000000E7,
0x15F60BF0,
0x000000F4,
0x040811FC,
0x00000001,
0xF3040E01,
0x000000EF,
0xFF0302F9,
0x000000F8,
0x030215F6,
0x000000E3,
0xE508FF29,
0x000000E8,
0xE1D0C4C9,
0x000000DB,
0xB2E1EAD5,
0x000000BC,
0x9FCAEEE4,
0x000000CF,
0xBEEA0113,
0x000000AC,
0x170FFD04,
0x00000006,
0x1813ED1E,
0x00000013,
0x1901D40D,
0x00000007,
0x17FEE42D,
0x00000027,
0x09DA031C,
0x00000026,
0xF2E007F2,
0x0000000A,
0x09EFE3E9,
0x00000011,
0x0AF4D5BE,
0x00000003,
0x1009E9A6,
0x000000DF,
0xEEFFDDD1,
0x000000C8,
0xECEDF5E5,
0x00000012,
0x0CF9DBCD,
0x00000011,
0xFB08FC96,
0x00000009,
0xF6F806C2,
0x000000E8,
0x0DFC02EA,
0x000000D6,
0x061122B3,
0x0000001F,
0x18162DEE,
0x000000EF,
0x1810240E,
0x000000F2,
0xFA0F141C,
0x000000E1,
0x03051E08,
0x000000FA,
0x02F4E5EE,
0x00000004,
0xF8F4DDCF,
0x0000000A,
0x0908EEBB,
0x000000FC,
0x0C08F1BE,
0x000000F7,
0xFBF8DFD7,
0x000000F0,
0xE20006F3,
0x000000B7,
0xE70E2201,
0x000000FA,
0xFEE61810,
0x00000018,
0x0BDCE702,
0x00000008,
0x191CF9EF,
0x000000FE,
0xCCDADFEB,
0x000000EA,
0xC9A6D80F,
0x000000D2,
0xCBBBCFF6,
0x000000CF,
0x06D3C2EF,
0x000000FB,
0x1AEEEB04,
0x000000FC,
0xF805FD1C,
0x00000008,
0x0510101E,
0x000000FB,
0xF20309EA,
0x000000FB,
0x090709FA,
0x00000002,
0xEDE8E501,
0x000000FF,
0x0A1C0C21,
0x000000F9,
0x150F170A,
0x000000F4,
0xF3FF08E2,
0x000000F0,
0xE0EBE0CE,
0x00000017,
0xD7B9A702,
0x000000D3,
0xF9FD0DEF,
0x000000DF,
0xCE07F4D0,
0x000000E5,
0xE8CBC2C1,
0x000000E6,
0xE5D9E4F9,
0x000000D4,
0xF702E2F0,
0x000000E8,
0x0400FB06,
0x000000F3,
0xF40CFC17,
0x000000F0,
0xF904FDF9,
0x000000EF,
0x0C1504FC,
0x00000010,
0xF1F6F7EE,
0x00000009,
0x0E16FE07,
0x00000002,
0xF92138DC,
0x000000ED,
0x04F5081B,
0x000000F7,
0xDFE9E10B,
0x000000D9,
0xF8F80420,
0x000000F4,
0xFBECF641,
0x000000FE,
0xEDF00A1C,
0x000000EA,
0xBDDEF1C1,
0x000000C9,
0x00FEE6E1,
0x000000BF,
0xDFD4000B,
0x000000B9,
0xF21715EB,
0x000000E7,
0xD70FF6FD,
0x000000E0,
0xBC06FE0B,
0x000000F1,
0xCBEC0D11,
0x000000E2,
0xD2DCF123,
0x000000E9,
0xFB05F2E3,
0x000000EC,
0xE40908FD,
0x00000001,
0xCCD602FE,
0x000000FF,
0xD1ABED19,
0x00000002,
0xF0DFDC31,
0x000000FF,
0x23D8D3E5,
0x0000000C,
0x21E1D60D,
0x00000026,
0x23EBB903,
0x00000016,
0x1905A9F6,
0x0000001B,
0x1010EABD,
0x0000001E,
0x04080F03,
0x00000005,
0xEF010C06,
0x00000009,
0xEFF60604,
0x000000ED,
0xF4E6EC1B,
0x000000F1,
0xEEDAE520,
0x000000F4,
0xFC0DFA13,
0x00000014,
0xF4000B14,
0x00000014,
0xF9D7D126,
0x000000FE,
0xF300FBF5,
0x000000E9,
0xEA080913,
0x00000002,
0x0D1A0DFF,
0x000000F0,
0x1F17F609,
0x000000DA,
0xFE07F1E8,
0x000000D7,
0xF6FAF9DE,
0x000000F5,
0xF7F8F1E6,
0x000000FB,
0xF0020E00,
0x000000E3,
0xFA100914,
0x000000F9,
0xF20E140F,
0x00000007,
0x0A00F2FC,
0x000000FD,
0xF1E103EE,
0x000000F8,
0xEB0C1200,
0x000000CB,
0xE6171926,
0x00000000,
0xE5FD1025,
0x000000F1,
0x0CDEDBEC,
0x000000F0,
0xD1B7E1E9,
0x000000E6,
0xB8FB2820,
0x000000B2,
0xEACF0E16,
0x000000D8,
0xCACAC1E5,
0x000000DA,
0xE1EAD4E8,
0x000000E4,
0xEB06EEFD,
0x000000F2,
0xF20509F0,
0x000000F3,
0xF20E1A0F,
0x000000E9,
0xECFF0813,
0x000000FB,
0xFFE8FC04,
0x00000014,
0xF70001F5,
0x00000004,
0xDF05DEEA,
0x00000003,
0x0AE0EDF1,
0x0000000B,
0x00FBD9DB,
0x000000F1,
0xE9FD0011,
0x000000D4,
0xD7FF0612,
0x000000D7,
0xE5EFFD15,
0x00000015,
0xEADB0420,
0x000000FF,
0xE1E7FA06,
0x000000F9,
0xEBF8BAAE,
0x000000FF,
0xD8F9EEFD,
0x000000FB,
0xD4F50701,
0x000000D4,
0xF3E5E904,
0x00000013,
0x230D09F0,
0x00000010,
0x0210FBD5,
0x000000E2,
0x190D05FE,
0x00000002,
0xF407FDF5,
0x000000ED,
0x06E0E4EC,
0x0000002C,
0x271FFF0A,
0x00000027,
0xFB02FBE9,
0x000000DC,
0xE8E8DDDB,
0x000000F0,
0x0AFE05FF,
0x0000001F,
0x15F9FAEE,
0x00000023,
0xEDF0DAE5,
0x000000D1,
0xB6C1C6E1,
0x00000014,
0xE8DAFC0D,
0x00000011,
0xE408F5F1,
0x000000F7,
0x0900E403,
0x0000001E,
0x0903FF0A,
0x0000000B,
0x05FBFCED,
0x000000E9,
0x11FE0F02,
0x00000008,
0x0BF0E6F4,
0x0000001F,
0x0B11EAEC,
0x000000F5,
0xA2E6D8CE,
0x000000B0,
0x12F60901,
0x00000015,
0x0C0F1909,
0x00000008,
0xF8E6FCF7,
0x000000E5,
0x0B161F22,
0x00000021,
0x101A0D23,
0x00000012,
0xE2E0DBD9,
0x000000E8,
0xE9D5CF04,
0x000000EE,
0x03FBF3FF,
0x00000004,
0xF81204F1,
0x000000E9,
0xE4FEFDFD,
0x000000D2,
0xEE15F9E6,
0x000000D3,
0xFB140406,
0x000000C7,
0xC2EAE6EC,
0x000000BD,
0xC6DBF9F6,
0x000000E3,
0xCDE1F7FA,
0x000000FC,
0xC3E9F00B,
0x000000E8,
0xB6E2F11D,
0x000000BE,
0xFFD6CAEA,
0x0000000B,
0xF3EAD0F9,
0x0000001D,
0x0CD1E8FE,
0x00000029,
0xE4E0FD03,
0x00000013,
0xB8C5F4FA,
0x000000EB,
0x0D1F0D15,
0x000000FB,
0x080B0810,
0x000000D9,
0xF8110DFB,
0x000000E2,
0xF9FF0214,
0x000000DD,
0xED0D0719,
0x000000CC,
0x06FDF3F2,
0x0000000D,
0x04E5DBEF,
0x0000002A,
0x0ADDFB0A,
0x00000026,
0xD7EFF912,
0x000000E4,
0xD8F90209,
0x00000005,
0x150C1BF8,
0x000000E7,
0x180BF8EF,
0x000000DA,
0x1B0B06CE,
0x000000F5,
0x240ADFFA,
0x00000015,
0x4413150C,
0x00000033,
0xDB0906F5,
0x000000D6,
0xF9E51607,
0x000000E2,
0x05EAE52A,
0x00000001,
0xE2D5C6FF,
0x000000FE,
0xD3C3C9ED,
0x00000013,
0xCEEFFCF9,
0x000000D2,
0x100D2108,
0x000000FE,
0x2208E901,
0x00000009,
0x0F10E0D6,
0x0000000F,
0xE6C3C8D3,
0x0000002D,
0x0607F300,
0x0000000F,
0x2227F6FF,
0x000000FA,
0xF5341901,
0x0000000A,
0xF1052519,
0x0000001A,
0x13F2E1EB,
0x0000000C,
0xE0F7FFEE,
0x000000E9,
0x05D1E40C,
0x000000F5,
0x1D08B1F3,
0x00000014,
0x0BF3BEE7,
0x000000FF,
0xEBE6C5FF,
0x00000025,
0x1100052B,
0x00000007,
0x072906EB,
0x000000F4,
0xE0131D0A,
0x000000E5,
0xE7A2D2F2,
0x000000D8,
0x020CE8E3,
0x000000F3,
0x011D1EF8,
0x000000EA,
0xDBAEE415,
0x000000FC,
0x11A4CA0A,
0x000000FD,
0xDEEF0BEA,
0x000000F8,
0x20374020,
0x000000F4,
0xF6FEE9F1,
0x000000ED,
0xF0E0F7FB,
0x00000009,
0x0F06F2F6,
0x000000FE,
0x070C0E0C,
0x00000007,
0x00060006,
0x000000FA,
0xF603D8CE,
0x000000E9,
0xF1F2FAF7,
0x00000010,
0x0702F20B,
0x00000018,
0x0A241D1C,
0x000000EE,
0xF405020C,
0x000000D1,
0xE7F614FA,
0x0000001F,
0x1BF40A0F,
0x0000003A,
0x10F5EF05,
0x00000008,
0xC1E0D9F1,
0x000000DF,
0xD6CEDDE5,
0x000000E0,
0xF101E6E4,
0x000000EF,
0xFE07FCE8,
0x00000014,
0xF008F608,
0x000000F9,
0x0C041710,
0x00000002,
0xEEE9F306,
0x000000E9,
0xF7011F24,
0x00000002,
0xFA01FAF9,
0x000000E4,
0xF1FDF4F6,
0x000000DD,
0xE9E0B9C2,
0x00000002,
0x08061222,
0x000000F3,
0xF40AF1E0,
0x000000E2,
0xD2F718F6,
0x000000EC,
0xF7F91712,
0x000000F1,
0x021E1B10,
0x000000D5,
0xCEDAD0E9,
0x000000B6,
0xF5FFE2FC,
0x000000F9,
0x03C6DB05,
0x00000029,
0xC7D0EB02,
0x000000F1,
0x0C1806FF,
0x0000000E,
0x0D0D1215,
0x00000015,
0xFBF7EFF1,
0x000000FA,
0xF7E0CA00,
0x00000005,
0xF5C7CCF7,
0x000000EE,
0x100B1310,
0x0000000A,
0x1A161807,
0x00000017,
0x0613240A,
0x000000FE,
0x02FBEDED,
0x000000EB,
0xF3E3D7EA,
0x000000F2,
0xDECBFDFE,
0x000000FD,
0xFC04F90D,
0x000000FE,
0x06FDF40F,
0x000000FA,
0x06E4DBF1,
0x0000001F,
0xF7D8E303,
0x000000F8,
0x0F041315,
0x000000FF,
0xFD070412,
0x00000004,
0x011D201C,
0x00000008,
0xFB0B01DE,
0x000000EC,
0x1611EEDF,
0x0000000A,
0x20EDEBD7,
0x0000002A,
0xCBD2F2F6,
0x000000D2,
0x02D6C401,
0x00000008,
0xDDD90328,
0x0000001C,
0xF92E3517,
0x000000DB,
0x27382301,
0x000000EB,
0xFFDDB7BD,
0x000000EF,
0x07F9ED02,
0x150CF9E8,
0x02E2D705,
0x01D8F80D,
0xE2E60204,
0xFC263947,
0xE6F40ED0,
0xEEF61011,
0xCB0DC3EC,
0xF5F3EEB4,
0xF41C1622,
0x091A2DF7,
0x02F7FCFB,
0xD7060402,
0xE60DFC02,
0xF206DCF7,
0x1E171E0E,
0x1D1F062E,
0x09F3E6F7,
0x0DEB01CC,
0xF5E7C60A,
0xEB0CEDF7,
0x1EC608E0,
0xFD0E2200,
0x07F9E808,
0xE1E2EF04,
0x20090F00,
0xD9E1093B,
0xC6E5FD10,
0x07F7D5C4,
0x151E2DFE,
0x121A1CFD,
0x05FBBF00,
0x0203FA03,
0xFA0C1E30,
0x0D0C0B11,
0xF1E2F2E4,
0x10E2ECF9,
0x18FCF7F4,
0xE9C1E8F4,
0xF21D070E,
0x0FF2F719,
0xCACE0CFA,
0xF30D0DD6,
0x0A07EC04,
0xF30C04FA,
0xEFF70F14,
0xC4F10CE6,
0x1C0CD5D8,
0xF9F71F52,
0xE5FCFEF1,
0xF1E4D7E1,
0x0710EBDB,
0xEC1A130F,
0x0A11261B,
0xFEC5C5E8,
0x06EEEE1E,
0xEFE6121D,
0xC8ED0CF5,
0xED00CFC9,
0x0BE8F5C2,
0xF5221412,
0x0DFCDE17,
0x05E3D7E4,
0x010FF2F3,
0x1C0D1F04,
0xFAF9000F,
0xC104171A,
0x47260EF9,
0xE60F1719,
0x110DFF0F,
0x21160506,
0x351A1136,
0xDFF11737,
0xD4E1E2DA,
0xDF07F0D7,
0x080FEFF2,
0x181B08D0,
0xF21BE20D,
0x01E5F5DF,
0x051EE5E8,
0xE8E9DEED,
0xE5DF2307,
0xF90D310B,
0xE91B17ED,
0xD4DAC9CB,
0x0D0FFEEC,
0x0B1405F9,
0x2EFDF304,
0x15072120,
0x2F1FFADD,
0xF9EEE8F8,
0xE5F9F4E9,
0x1B080FE6,
0x07F91112,
0xEBE4DCCD,
0x1B0CEF0B,
0x04FEF50E,
0x17E30316,
0xE5CFECF0,
0xF5CFE4FB,
0xF2C0D912,
0x29251B0D,
0x190A273E,
0x10EDD806,
0xF9D9C8CC,
0xFD2B10F1,
0x2506FFD5,
0x1DE5DB11,
0xE3040D32,
0x10E9FFEC,
0xFCEB07FE,
0xF50BEBFC,
0xE8E1CFD4,
0x220BF9E2,
0x150BECCD,
0x120DE510,
0xDC021F2D,
0x3B04260B,
0x43512021,
0x180AEE11,
0x07D60925,
0x2112FCFB,
0xFB03F009,
0x1D001D28,
0xFDF401F6,
0xF5041125,
0x180A311C,
0x2DFC2608,
0xF5EFF825,
0xF1FDE3C1,
0xD9C8DB05,
0xDEEEF3E5,
0x130AF2E2,
0x312D1C0F,
0x17141814,
0xF2F6E612,
0x18110A00,
0xFE0AFC1C,
0x13FAD5DB,
0xD2E6D70A,
0x0C0708FD,
0x0D0E1408,
0x0C02F80A,
0x08EE2F46,
0xF6191F22,
0x03D80912,
0xFAF9F107,
0xF9CAFE11,
0xD70411E5,
0xE6FC06FC,
0xE00D15F4,
0x0C011AEF,
0x200EC4CE,
0x1707FC1B,
0xF1F40217,
0x040833FC,
0x08193C32,
0x0A0A1804,
0xE6F5110F,
0xE1070922,
0xFE1B12F9,
0x1CFA04E9,
0x0B0DE7FE,
0x18F3072C,
0xFAF508F4,
0x111BE71A,
0x0215090C,
0xE50E14DD,
0xF4E9FCEE,
0xD7E0D8F2,
0x01060EEA,
0xFC091B11,
0xFC310C08,
0x16151309,
0xED10081A,
0x20ED0EF9,
0xFD09D6F5,
0x17EDEA0B,
0xEA000EF2,
0xF50CF905,
0x0604FD10,
0x031A0AE6,
0x0314FCF6,
0xE81308F3,
0xE3FC250D,
0xEC0911EB,
0x040CD8FE,
0xEEFAD1FC,
0xEDEBCDEF,
0x18EB1015,
0x09EC0B17,
0x08DD1919,
0xDFFAFFE9,
0xDBF1CEE6,
0xE1F30906,
0x10091EFF,
0xF4010C08,
0xEA0906FB,
0x0809F7FF,
0xFD0404F4,
0xF9F9F9FA,
0xF6FDFF01,
0x06FEFD03,
0xFB05FDFF,
0x03F803F8,
0x01FA05FE,
0x01FD02F9,
0xF6FDF8F9,
0xFB0202FD,
0xF9FAF8FF,
0xF800FC01,
0xFFF8F900,
0xFA0001F8,
0xFFF5FEF7,
0xF5F70304,
0xF7F501FC,
0xFFFC0103,
0xF70300F8,
0x01FE03FE,
0x02FFFCFE,
0xFF05FDFF,
0xFD05FFFD,
0x0500FB05,
0xF8FA0403,
0x02000701,
0xF9F8FC00,
0xFCFAF7F8,
0xFC02FF03,
0x00F40403,
0x03F9FA00,
0xF606FEFD,
0xF60102FB,
0x04FBF401,
0x01FA00FD,
0x00010302,
0x010101FF,
0x0102FD03,
0x06F908F8,
0x07FDFA04,
0x0203FA01,
0xF80206F8,
0xF9FC0107,
0x05050700,
0xFA000203,
0xFC04F706,
0xFEFD07F7,
0x04FCF903,
0x01FDFBFA,
0xF5F70502,
0x05020503,
0xFC05F8FD,
0x0103FB01,
0xFAFB07FB,
0xFCF8FCFA,
0xFFF6FCF7,
0x02FFFAFA,
0xFEFBFFF6,
0xF9F6FEFB,
0xFEFCFEF9,
0xFAFCFDFA,
0xFD07F905,
0xF9F50303,
0xFA08FF00,
0x02F60402,
0x03FFFC00,
0xF8FCF7F4,
0xF6F5FFF9,
0x08FBFFF6,
0x04FDFDFA,
0xF8F5FDFF,
0xFCF6FAF8,
0x04FEFFFC,
0xFA0500F8,
0x09FCFFF5,
0x00FFFC03,
0xFAF8F801,
0xFB000101,
0x01FBF802,
0x010401FA,
0x00F700F8,
0xF9FAFC00,
0xFCFDFAFB,
0xFFFB01FE,
0x010207FF,
0xF704F9F9,
0xFAFEF307,
0xFEF9F802,
0xFE02F704,
0xFA0201FE,
0x050702F7,
0xFBFFFBFC,
0x03FFFAF5,
0x00FFF8FE,
0x01FBFA0A,
0x01FD01FC,
0x00FEFCF4,
0xF700FDFD,
0xFF040001,
0x0002FBF9,
0xE0D2D8E9,
0x120000DD,
0x151E120A,
0x01131709,
0xE2F71322,
0xFFFD200A,
0x22E6FFFA,
0xF2DE0118,
0x2DE1F3F0,
0x0B2005E1,
0xFBFD0024,
0xEF0C07E0,
0x0EF8EAE2,
0x06F1E702,
0xDFF5EAF3,
0x140AFA0D,
0x27162C1F,
0x08150A21,
0xFC031008,
0x1E2FF1E1,
0x0BDFD7C6,
0xEFF6E1E4,
0xEC030AE9,
0x0721F4FF,
0x0DF50002,
0xE4E8DC0E,
0x02F204DC,
0x00FB2118,
0xF0F7EF05,
0x1F1806ED,
0x1920FBD5,
0xEB1917FF,
0x2624B1E1,
0xE4C5DDE6,
0x0B1C030A,
0x071401EC,
0xFCF7FF08,
0x04C2D7EE,
0x01EDF733,
0xE4E6DBF8,
0x19F0EE0C,
0xEDE7DF0F,
0xE3E0060C,
0x0E1C05F9,
0x0D18DFFF,
0x0CF9DD09,
0xE0D4FC06,
0xEA1BEDE5,
0x2FF4E9C5,
0xF304E9E7,
0x120B03F7,
0xF9E00FDA,
0xF325CFD7,
0x130611F8,
0x130EFB03,
0x07FF01EC,
0x34E6A615,
0xF197403B,
0xBFD004F3,
0xF7120DDB,
0xF308E0F2,
0xF3DAE8FE,
0x1DFDFDEE,
0x08DCDEF3,
0x1C01F41D,
0x13E8F93C,
0xFEFB1F0F,
0xFCFFFB0B,
0x321D19E5,
0xA1EFF81B,
0xEBFA0F17,
0x0E16F9DC,
0x12EC0519,
0x010F1100,
0xEBF51113,
0x0022F0BD,
0x2302D306,
0xF4FB04F0,
0x19F90D01,
0x09E8FBD5,
0xF2F0EF0C,
0x00D2ECFC,
0xD3D4000B,
0xE8201202,
0xE107F2E8,
0xFAF600FA,
0xFCE9E814,
0xE81A06FC,
0x22C9C3E2,
0xF3EBFEF9,
0x300CFEDB,
0x0BFEE81F,
0x0A0A0629,
0xF7050F1A,
0xF3D70108,
0xFAF6FACE,
0x1001EDF0,
0xF20E240E,
0x1AEB0515,
0xDEE4EA0A,
0xE8EAF608,
0xEFF50A1F,
0x37331214,
0x1E191536,
0x11020B13,
0xE8BAE7C2,
0x2A0C0AFC,
0x23FA0B24,
0x23F5FF0C,
0xE9001E0E,
0x02FAEACF,
0xDEDBF509,
0x081501FC,
0x19ECEEED,
0x0D0CF4FC,
0xE50B1BFF,
0x0514E5EA,
0xCFEC2BF8,
0xF33DFABA,
0x3A400928,
0x31FC0FF1,
0xEBEEFB20,
0x2500F6FF,
0xFBDEF107,
0xF0FE0A25,
0x01F8F2F6,
0x0C060C29,
0x08214601,
0x250C1D02,
0xFA18F814,
0xF806DBF2,
0xE2E5EADE,
0xFC1BE2EA,
0x0FEAFDEB,
0x1E0DEDF9,
0x17080A08,
0xEAE0E86A,
0x36040901,
0x08DFE940,
0xF914F910,
0xC9C4F6FD,
0xFF0A00F8,
0x1C170AF6,
0xF01BF2FB,
0x110A3418,
0xF212070E,
0x00DDEF0D,
0xEAFE13F6,
0xEFE8FF24,
0xE2F8E6D0,
0xF2180705,
0xE50913E1,
0x0604F0DE,
0x1CFCE60B,
0x1805F506,
0xF2FF030D,
0x151B0A05,
0x11EE4430,
0xDE030E16,
0xD706072D,
0xCEFC2DFB,
0xF12200FA,
0x2514EED1,
0x0C02D9F4,
0x07EC060C,
0xFCEBFAFA,
0xF21CF902,
0x09E80AF6,
0x040FFEE1,
0xEEF2FFEE,
0xF701F8F2,
0xDDFB30EC,
0xEC1304F6,
0xF44A1B01,
0x210B0A13,
0x0D1F1F0A,
0x1AF507EB,
0xEEDFFB21,
0x17D0E9ED,
0xF7F10713,
0xD7D82B1C,
0x0408EEFE,
0x0CF3F9E3,
0xDF2FF3F3,
0x171503FA,
0x0B262BEB,
0x0E1206ED,
0xF1FCC6F3,
0xF0F0D4E0,
0xFFE7EAEE,
0x0DFA0715,
0xFFF40538,
0xFAE64C21,
0xDEFA0005,
0xD9E501E9,
0xD5F21A02,
0x150E0EC4,
0xEFDA0CF6,
0xDC1B12FD,
0x2306F3F8,
0xFC0801F7,
0x12FEFA20,
0xF9132F21,
0xB71BEAE6,
0x00110CD2,
0x1CFCF9F9,
0xF11A0619,
0x061AB19F,
0xEBDDEC22,
0x0607F922,
0x0C13F3DE,
0x30EEF9F6,
0x0608032E,
0xE4DBDFE7,
0x242417F9,
0xFD1115F1,
0x09050913,
0x19EBF21D,
0x06FB122F,
0xE1FEEA02,
0xDFE3EB0F,
0xECDBF0CD,
0xF202E6F1,
0xE8E4DDCE,
0xE3EEB9D7,
0xFEF205E1,
0xEEF90FE8,
0x1C19DDDF,
0x01F7D700,
0x23FAF8EB,
0x0CF5E6F6,
0x0BE4E125,
0x00EE2205,
0x124B11FF,
0x2707020A,
0x10F3FEFF,
0x0A0AFA0F,
0xFC17FD01,
0xE60D1F0E,
0x081806DC,
0x2C12E7F3,
0x07EA083A,
0xE2E107F2,
0x0003F906,
0xD6D4F3CD,
0xD2DCE7FA,
0x11F9EEBF,
0x0109C8CF,
0x10F8D903,
0xF9E0F603,
0x2BDDFC16,
0x0603DA21,
0x32DF1642,
0xFE243136,
0x1A22FDF7,
0x2B1DFBF2,
0xC7C71320,
0xEA19CFC1,
0x0AF1B3E0,
0x1601D5FC,
0xECE9C4F2,
0x06DDEE1A,
0xFC0FF2CC,
0xE93B170A,
0x0814FDFE,
0x152224F0,
0x0A0803F7,
0x0D161016,
0xD2E91829,
0x1C23FFED,
0x061711EB,
0x1710022E,
0xE6F93913,
0x0B18F8EE,
0x0FF9120A,
0xD2E7DA24,
0x08DD1A27,
0xE4FF1CED,
0xDF1D040C,
0x14E719FE,
0xDD09F6EA,
0xDD090A13,
0x0413DADD,
0x09D5C7D0,
0xD1B1FB09,
0xF5E2ECF7,
0xC7C80FD0,
0x03CBF0E8,
0xDB192D20,
0x14F6F60A,
0xFCE92B40,
0x040DF507,
0xE4D9252C,
0x19FAFCF5,
0xEEF0051A,
0x0DFCF800,
0xDEF9FE21,
0x12051E08,
0xD524190D,
0xDFF4FBF0,
0xE8DDE5DE,
0x03FA01F2,
0xD6EE0B16,
0xEEF11320,
0xF8FDF8F0,
0x12EBE41A,
0x11082422,
0x03F4F207,
0xEFD6EF0B,
0xE4FCEF01,
0xEB02071B,
0x0C1C0EDE,
0x080CE6EF,
0x01D0C8E6,
0xDAE705F0,
0x07F8FBFB,
0xFFFEE7F6,
0xF90A06F6,
0xFB040EF8,
0x3C110705,
0x21ECF709,
0x06120035,
0x0C150711,
0xE5FB0A03,
0x09F8F920,
0xEBCBF608,
0xE604F007,
0x0C170C01,
0xF202FCEA,
0xDFF1EFF3,
0xFA0821FE,
0xC7E8E013,
0xC8D817D4,
0x0805FFE9,
0x3D2903F3,
0x0AEFED0B,
0xF3ED08FB,
0xF53205FD,
0x17010915,
0xFDE1E4F7,
0xD400FC19,
0x0303F8F3,
0xEC112911,
0xF4ECF808,
0x10F01D0D,
0x1A0E0522,
0xF50CFA00,
0x0A09EC02,
0x16DCE9F8,
0xF5F0220A,
0xF2F0061C,
0xF8F908E8,
0x041FEEF6,
0x09F6050C,
0x2CFD0BFB,
0x1EE7EEF3,
0xF1F6F709,
0xEEFC090B,
0xF20D16DD,
0xFDE5CFEB,
0xFCF1FFF1,
0xE1141A19,
0xF9F22BF4,
0x070BF7F5,
0x02FB070A,
0xF3F10624,
0x191212F7,
0xFD15121C,
0xF9FA14F9,
0xF7F0DFE7,
0x02F1D1EB,
0x06F300FB,
0xEB02401F,
0xE8150E08,
0xEFDFF6E2,
0x30110C0D,
0xF2011718,
0xFC261916,
0x142905F9,
0xF70CF0EA,
0xFDFF0D29,
0xDBF6FBFF,
0xF9133C16,
0xF82EFC10,
0xEF090116,
0xCBF31B1B,
0x20322116,
0x040109F6,
0x000AF3F7,
0x12FA0C02,
0x1C110419,
0x22183124,
0xF0FCF4FC,
0xE9FFE4E6,
0xEAE8E8E5,
0xF901EF00,
0x0AF7F3EE,
0xFBE9F013,
0xFA01E4DF,
0x12F4E1EF,
0xEDF70D04,
0xDD110702,
0xEFE3CFC7,
0x08F5F9CE,
0x00260DFD,
0x030D02E9,
0x02E1E80E,
0xD9FFF715,
0xEB0125FD,
0xF7FAF8F5,
0xFA1C130C,
0x0C27F8FD,
0x04FEBEF5,
0x37FDF905,
0xF4F10221,
0xD4E6E0EC,
0x1D15D4EF,
0x14EDCDFD,
0xEFFAF61C,
0xE6F0D7E2,
0xDDD7EB03,
0xD8F41904,
0xEEF116B9,
0xFBF104CE,
0xD6E6E5E3,
0xD3F9ED07,
0xE0EDFEE6,
0xD5FCDDC2,
0xE3E6B8C3,
0x1CF0E2C8,
0x1101E30F,
0xE6F0F8F8,
0xFAF4FCEE,
0xD10E01F6,
0x0DF0E0DA,
0x12EAFA09,
0x02FCF40B,
0xF40B0323,
0x11F213FC,
0x170CEC17,
0x041001F3,
0x040507E9,
0xEC20F91C,
0x0104F008,
0xF10EE3DB,
0xDCDE0006,
0xD01C27EF,
0x0A2DDAC8,
0x0BD9DADA,
0xFEF5E814,
0xFF0FE3E7,
0x0400EEDF,
0xE1DCE2F5,
0xEDCAFB05,
0xFEF5F3D1,
0x23F4F0F4,
0xEAF5D606,
0xD60AF7D7,
0xF50CCED3,
0x17DFBDD4,
0xF9DBDFE6,
0xF7ED1CFB,
0xE1F4E7D8,
0xE4D7BAEA,
0xAC0C060A,
0xF5F9F4FE,
0x1703F5B6,
0xEB00F105,
0x00F6E410,
0xE6F1E4F4,
0x1BF9F4E0,
0x0FE2F7FE,
0xDC042B20,
0x0408EBCD,
0x211FFDEA,
0x020613E4,
0xE9EEFB28,
0xEF0334FB,
0x05130BE7,
0xF4EBEEFF,
0xE5F3F618,
0x19E70FEA,
0xFD10310E,
0x2C1EEE04,
0xEFC8D609,
0xF3E1E3FE,
0xFBED03FD,
0x04150607,
0xF5CFE2DF,
0xEA11DFDF,
0xEFE8F0F4,
0xEFE8E302,
0xDF02300A,
0x04181D0A,
0x0CEEEFFA,
0x212FE3CF,
0xF4F30317,
0x201F0D11,
0xF8ECFD05,
0xE5231BFC,
0xFFFAFEFA,
0xFAF9F802,
0xFAF604F5,
0xFBFC03FC,
0x050108F8,
0xFB0405FF,
0x00F50305,
0xFBFDF6FB,
0xFE05FEFF,
0xF6F6F903,
0xFEF9FAFF,
0xFAFF0700,
0x0005FEFF,
0x05F7FC03,
0xFCFB0000,
0x05FCF805,
0xF9050103,
0xF907F506,
0xF8FF00FF,
0x0301FDF8,
0xF70202FC,
0xF9FD00FC,
0xFEFFF802,
0xFBFFFF05,
0x010000F9,
0xF6FE0202,
0x00F7FEF6,
0x02FD0100,
0xF7F5FCFD,
0x07FAFF07,
0xFDF6FDFD,
0xF901F701,
0xF8040706,
0x04FE0504,
0x04FA03F7,
0x000204F5,
0x0203FDFC,
0x0101F8FB,
0x02F703FE,
0x0205FAF8,
0x03FEFCF7,
0x05FAFEFC,
0x04F9F6F6,
0x03F7F800,
0xFCFCFCFF,
0xF803FFFF,
0x0600FB02,
0xFFFBFAF8,
0xF904F6FC,
0xFFFE00FB,
0xF8FBF800,
0xF801FBF7,
0x0600FBFC,
0xFD0403F8,
0xF8FEFAFD,
0xFA01F7F5,
0xFE00F5F5,
0xF8FBFC04,
0x02030403,
0x0304FBFE,
0xFA0303FD,
0x04FBFB00,
0x03FC08F8,
0xFCF80104,
0xFFF8F907,
0xF4F50006,
0xF6FDFEFB,
0xF700F902,
0xFF0401FD,
0xFEFEFD02,
0xFDFC01FD,
0x0103F702,
0xF5FCFC05,
0x04F900FB,
0xFFFDFEFE,
0xFC02F6FE,
0xF904FFFA,
0xF701F8F6,
0x03FD0505,
0xF8FA00FD,
0x0101F6FF,
0xF803FEFC,
0x05F6FDFA,
0xF7FD03FD,
0xFF0000FF,
0x01020404,
0x04FB02FB,
0xFBFEFBFB,
0x0501FCFB,
0x05FAFB02,
0xFF00FB01,
0x02F70305,
0xFEF90004,
0x04FBFFFA,
0xFC0301FD,
0xFC02FBFB,
0xFD0001FD,
0xFBFAF9FF,
0x0107FEF9,
0x07F6FE05,
0x0603F3D6,
0x08F7EC14,
0xBDC72121,
0xECFE17E7,
0xFAF001EA,
0x1C14162C,
0xE303070D,
0xFA0FCCD5,
0xE9EEDDE9,
0x23230E28,
0x1123160D,
0x2312000A,
0xECD0E60C,
0xF3E3EDEA,
0x00F1E6E3,
0x2221E600,
0x220E400B,
0x1D0C0621,
0x19ED1C13,
0xDBDB25FB,
0xB3200A09,
0x10FAF1AC,
0xEAF0DBF8,
0xE007F503,
0x18E6FAEC,
0x15F8EDDF,
0xF3F0EE1D,
0x0FD2D9F3,
0xE0CEBFFF,
0xECEC0AE9,
0x0B241519,
0x00F9F514,
0xCECB240F,
0xEB43F6CB,
0xE7DC04EF,
0x160C03FE,
0xF8F912DB,
0xF4FAF3EF,
0x14130D06,
0x141E120A,
0x0A0C2003,
0x09FCF211,
0xD4F4E3F3,
0x15E8FDDF,
0xDBF9F7EF,
0x071A1310,
0xF7E3EEBD,
0xCAACD2DD,
0xF80903D9,
0x112A32F0,
0x18EEFD01,
0x03070B24,
0xF7093F25,
0xDB2C1902,
0xE50005EE,
0x1B13EADF,
0x12100D13,
0x19FF9CC3,
0xFBB5BFFE,
0xE2EBFAF1,
0x0814E2D9,
0xF80A1115,
0xFCE71CFC,
0xDC24370D,
0xFD091CFC,
0xFD1AEAF6,
0x1AF3EBDB,
0xFAFAE0E9,
0xE2EB040D,
0x2D0F0EEB,
0x0EE3E6CF,
0x0009EC3C,
0x04FFF5F0,
0x0CD0FEF1,
0xEBFA00F3,
0xC3DBF209,
0x041115F7,
0x061405E6,
0xF6280519,
0x110904EB,
0x12FAE0EC,
0xFEFE10FC,
0x03150F07,
0xD8BFEE1F,
0xD9C8ECEE,
0xF4EAD7E6,
0x07E5FAF0,
0x11000327,
0xE01F2525,
0x1E05EFFE,
0xE2F22912,
0x1F1703EA,
0xF104ED18,
0xE1F9E6E2,
0x111EEEE1,
0xFCD0E2F2,
0x0A02F300,
0x011EDC02,
0x0AF31208,
0xEDE8FD0D,
0xF5F903F5,
0x181B2BF3,
0xC805302B,
0xB52327FA,
0xDAFD06C3,
0x08EEB2A3,
0xDD2A26E9,
0xFA27EFC6,
0x0C17E8CF,
0x1608E90B,
0x060E1AFD,
0x16241412,
0xDBF8DBE1,
0x0710FED6,
0x0D110D07,
0x2AF5BDCC,
0x08DFCE11,
0xD5E1F120,
0x2FF5F108,
0x1EF51612,
0xFFFDFF22,
0xE8123308,
0x0B1B070D,
0x06F316D8,
0xF2F805D8,
0x1518060D,
0x190E1919,
0x0B07D80B,
0x0B100507,
0x010228DA,
0xF904F0BC,
0xD0D7E601,
0xC4CA09F1,
0xD3DAE5F2,
0x13F9FCBA,
0x14050E2D,
0x001111F8,
0xECF4F919,
0xFD07DFE0,
0x1B1006ED,
0x0A07EF31,
0xFC1942E4,
0x2815D3C7,
0x30221712,
0x0304283E,
0x21331622,
0x1A3836EF,
0x1505FEE7,
0x061BE9CB,
0x0C03BFF3,
0x0414DFF5,
0x2CEBE708,
0xFDF929FC,
0x0AF6F108,
0xADBE12D9,
0x00F8FE09,
0xFA1E1A0E,
0x1A2DDEEF,
0x2F1EEDDF,
0x2BEBD51D,
0x08C8EF19,
0xF2FBF800,
0xF8DBFAF2,
0xEB101F20,
0x061B1212,
0xF62410E3,
0xDFD3F5E4,
0xC8FB11B3,
0xE02F14D4,
0x15F5DAC9,
0xF2D3DAB1,
0xEBA1AEF2,
0xCCF0DB06,
0x121703EB,
0xF1122010,
0xFABFC4E0,
0xDDEBF5F7,
0x15243105,
0x1C0403F1,
0xCB01F715,
0x14FBEADF,
0xFAF60DED,
0xFC1A16EF,
0x45C6FC27,
0xF1ED3516,
0x19021012,
0x04F50AF1,
0xEFE9F507,
0xF80EE9E5,
0xD3FEE5F4,
0xDFDCE4F8,
0xF4F3EAF5,
0x0EF52D19,
0xD0FF1106,
0x2FF4EAB5,
0x0DC9A3B8,
0xEBB8D528,
0x1B1F020C,
0x0CF60E16,
0xE40F2D04,
0xEB010804,
0xF9EB0002,
0x1F260D0B,
0x2218101E,
0xEBFADD16,
0x0CDAB4BE,
0xD9FD0902,
0x221906EE,
0x02E80CFD,
0xFB0A231B,
0x0FF5EAD0,
0xD6CFD91A,
0xF41F0707,
0x0218090F,
0x2D1C1119,
0xF8E610EE,
0xEAF5D90A,
0xB9AF0A14,
0x14051301,
0xF102FAE7,
0xD600F812,
0xF2FE2206,
0x2905CDC8,
0x10DFCE01,
0x06AFE6FA,
0x15080317,
0x1AFF08EF,
0x0FF3061D,
0x184D3C1E,
0xF7EC1520,
0xFFE5C8E9,
0xEAF7FE04,
0x0512FD07,
0xFCE5230F,
0x1718C3D5,
0x28F6E508,
0x0806F5E9,
0x4DFC0A09,
0x0AEDEF03,
0xE1D9FB22,
0xE3D2F426,
0xD02E23FB,
0x21072A1C,
0xF022F7D3,
0xDE0D0722,
0x14091308,
0xF9FC18E4,
0x01E9FC13,
0xD9D80B0E,
0xF6FAB2C9,
0xF71EE709,
0x0C1724EA,
0x0316E0CF,
0x13E7D5E0,
0x1901E7D8,
0x06EAD6F6,
0x01F61611,
0x0314F7DB,
0x172EF9FD,
0xF3DDF030,
0xE3BF2A27,
0xD11205FD,
0x0DF3F7D7,
0xE901E00C,
0xF0D5FA1A,
0x03E6EEE9,
0xFAD3E51E,
0xC4DCFDBF,
0xFF0801C5,
0xE1CFF9F4,
0x01FEF40F,
0xE7D0F3D6,
0xBADD1007,
0xF02026E6,
0x071A1621,
0xFFC50DEE,
0xDEEF0304,
0x07F5F4D4,
0x16DDF8F9,
0xD10BD135,
0xFBD4112C,
0x010927EC,
0x0E25D0ED,
0x02FF0803,
0xF3292602,
0xF4232C0C,
0xD80E04D1,
0x050FE4CB,
0xFCEDD4F9,
0xD7EBFFFA,
0x2013DBD4,
0x0ECDD938,
0x180D263D,
0xEF040408,
0x08F4F5E9,
0xEE0D0DFB,
0xF00A1906,
0xFFF2FD05,
0xF104040B,
0xE6201BF5,
0xEEF0FF04,
0x260B02D9,
0x0DF5CAF1,
0x0009EEF5,
0xF1F6161E,
0xFD1C321B,
0xCFF5FFDC,
0xD8F60C1C,
0x0FE6DFD9,
0x0AF2E4E1,
0xF70B0020,
0x1706180A,
0xF7EBF61B,
0xCB01FE01,
0xD605F4F4,
0x1100F401,
0xF6E711F3,
0x172A2223,
0x08EBEF08,
0x24EAE0CD,
0xE9E7A505,
0x00FEEEE1,
0x08CDF5E1,
0xFE130813,
0x0A100418,
0xE6F50C0B,
0xF81215E4,
0xE1E80A1C,
0xE0E50F1A,
0x02FEDED7,
0x000901FB,
0x16330F12,
0x2403ABF1,
0xECCEEE0F,
0xEFFE0F10,
0x081712EE,
0x070F1AE2,
0xFFE9D2E9,
0xF2E80A19,
0xD8DAE611,
0xF7072013,
0xF808E915,
0xF0FE0FFB,
0xDE1BFDF9,
0x081FD1E6,
0x07CE14ED,
0xE1EAF605,
0xF51001F6,
0x22E902FD,
0xFFEE1809,
0x04F3F8F7,
0xF2FEE7ED,
0xCF1BCFDB,
0xFB0600C7,
0xF816FBFD,
0xFFF8E6ED,
0x0BBBD811,
0xB4C54725,
0xD2E40300,
0xE2040CE0,
0xF010FCD7,
0x0812F401,
0x090A0C18,
0x0EC9D1EC,
0x1905F506,
0x1EDA01FD,
0xEA001233,
0xF2EE1B1A,
0x302F0402,
0xA2190426,
0xF5122C1B,
0x180A04E0,
0x14F0FD1F,
0x12CCF310,
0xE4ED1809,
0xEBF0CFAD,
0x06F2ABF4,
0x09CEEFC6,
0x0EF7EB10,
0x16D413FD,
0xECF9030E,
0xC2D80515,
0xD4C025FE,
0xC9332BDB,
0xFF2802D1,
0xE3D9E1DB,
0xF1F309F3,
0x000B13EF,
0x2CC3CAF0,
0xF4F50504,
0x0E05EBED,
0xFBFFEE07,
0x1227F5EA,
0x10E3FE17,
0xFDFA261F,
0xFFD4D4EB,
0x11E5BEFD,
0x020EF904,
0x2EEE1F0D,
0xD5E9F307,
0xF9FBF607,
0x05FFFA03,
0xF9F9FAFE,
0x02060600,
0xF9FDF904,
0xFDFAFCF8,
0x0502F806,
0xFFFEF606,
0x0205F800,
0xFBFBFFF7,
0x0206F7FC,
0xFBFF00F8,
0xF9080104,
0xF9FE01FB,
0x04FEFF01,
0xFBF9F8FD,
0xFBFBF502,
0x0506FB05,
0xFCFEFAF9,
0x0406FBFC,
0xF9F90004,
0xFA03FC07,
0xFDF80004,
0x0502F801,
0x0103FF05,
0x0703F7FF,
0x01F7FEFD,
0x0006FC03,
0xF800F9FA,
0xFCFF0703,
0x03FAFBFD,
0xF80707F9,
0xFBF70306,
0xF7FAFD06,
0x02FF01FE,
0x06F7F8FE,
0xFAF9FC03,
0xFAFAFB01,
0xF9FBFE02,
0xFBF80500,
0x0702FE01,
0xF9FF0105,
0x02F800F8,
0x00F7F707,
0x02F8FEFD,
0xFA00F706,
0xF9FF05FF,
0xFFF8FD03,
0x02FA07FD,
0xFEF8F9FD,
0xFB0104FB,
0x04000104,
0x0705FC01,
0x0603F8F8,
0xFBFA0503,
0xFFFF06F8,
0x01FDFA00,
0x02000203,
0x00FFFAFD,
0xFAFA0600,
0xFFFB02FC,
0xF8FFF706,
0x04FC0100,
0xFAFA00F8,
0xFC04FBFF,
0x05F9FBFC,
0xFA0303F7,
0xFE0200FC,
0x0202FD02,
0x05FBF407,
0xF8FA01F4,
0x04FC0306,
0xFFFC04FB,
0xF7FA02FE,
0xFDFF0102,
0x01F7F5F5,
0x0002FDF8,
0xF8F8FBF9,
0x01FDFB02,
0xFE02FBFC,
0x03FAFC05,
0x02FE0505,
0x01FD01FB,
0xFFFBFA03,
0x06F60708,
0x05FF0501,
0xF700F4FE,
0xF4F9F9FF,
0xFBF7FF01,
0x0502F904,
0x07FDF904,
0x04060203,
0xFE00FB06,
0x05FD06FF,
0xF401F9FA,
0xFEFBF304,
0xF3F5F902,
0xFDF8FDFC,
0xFD01FD01,
0xFC04F9FD,
0xF704FF07,
0xF8FD04EC,
0xFF10060C,
0xF2FBDDFD,
0xF5F916F4,
0xF7FAE70A,
0xFCFF26E5,
0x002F04FB,
0x0F03EAFC,
0xECEC0CF4,
0x0B080B19,
0xE0F7F7E5,
0x011FEB0A,
0xFFF9F0F6,
0xF4EEF9EF,
0xFFFC0A29,
0x1E0616F5,
0x03F5E8FF,
0xECFA0500,
0xF9DB06F0,
0x0F19DFE4,
0x00E7FF19,
0xE5EE0B02,
0x010004FB,
0xF21E1FEC,
0x1500D808,
0x09F6F3F7,
0x050ADFE4,
0x04FEF8DE,
0xFFF4DCE8,
0xE4E5F2ED,
0x0F0EFADE,
0xF111F000,
0xE1F914F2,
0x020AFBD9,
0xF409170B,
0xE7F3DF0A,
0x0AFDEBE1,
0xF50101F1,
0x1E010A04,
0xF004FE12,
0xFC04F720,
0x260B0303,
0x0CFFF109,
0xFF2CF701,
0xFFF9E325,
0xF1F1FCF2,
0xF410FC07,
0x2D05FAFF,
0x1B06FF34,
0x02F8FE24,
0xFE060EE0,
0x1C160409,
0xECFC151D,
0xF3040AEB,
0xEEFD0A04,
0x12F8EDF3,
0xECEC00D4,
0xF0E90F06,
0xFB04FCE2,
0xE8F0E0DF,
0x0E0508F6,
0x1503EA11,
0x1703FDF4,
0x12F00E18,
0x05DC1BF0,
0x190F4DDE,
0x1012F1EA,
0xF102E1FE,
0xEBF9ECF4,
0x0C25141E,
0x09E9FCF7,
0x1915F013,
0x020F0F0C,
0x0704090A,
0xEE00FADD,
0xFC1003F8,
0xFB0E06FA,
0xEB1FFA00,
0x00E70DEA,
0xF11802EB,
0xEF00E006,
0xEFD2E708,
0x150E1CEF,
0xE2ECF725,
0xFFE5E501,
0x0AF914E3,
0x08F10226,
0x20EC1714,
0x101D1C1F,
0xEEF9F7E7,
0xEFF7F5DF,
0xEFF00AFB,
0x240AF0E3,
0xE3F0F606,
0xEFF1FBFD,
0xE501ECF4,
0x0DF9FCFA,
0xEAE5E409,
0xDEEBE1CF,
0xBCC0DFE2,
0x0705FFC9,
0x352BEDF9,
0xD0371620,
0x380C0CF8,
0x0FFD04DF,
0x3BDAEA2C,
0xEAF4080D,
0x1F0310FE,
0xFD15EDF0,
0xCA10D405,
0x301B05E7,
0x03FC0CF8,
0x27E6F8F2,
0x0C0F03FD,
0x094F201D,
0x150109EE,
0xDEDF0BF5,
0x342A1ADE,
0xF210FE24,
0x0C16FCF3,
0x1515E214,
0x250F23FC,
0xF21FFEF6,
0xF0D80606,
0xF1ECF015,
0xFFD4F0BC,
0x3329DBD5,
0xF801B2E9,
0x10251C0A,
0x15170505,
0xF3F10EED,
0xFE13E6F0,
0xD008F802,
0xFC031703,
0x04F8DED9,
0x01ECDD33,
0x42082921,
0xF3031848,
0xE51C0F10,
0x13EFF701,
0xC6DAF2E6,
0xFFE501FA,
0xE708F7F5,
0xD7F4E8FA,
0x15E4D5F3,
0x1CF0F2E8,
0x1136DB06,
0xEC11FC27,
0xD3EADDEF,
0xFD173B09,
0x0D0916FD,
0x2022F31B,
0x040C22F4,
0xF5DCE8E6,
0x1014E4BF,
0x17FADE16,
0xF5C30629,
0x0C16FB01,
0xF309F908,
0xD7010E1E,
0xD81002F4,
0x2B14F6E1,
0x1FE0C610,
0x09180C28,
0x35F2141A,
0xDF1710FF,
0xE6EBE609,
0x290A1D05,
0xDFFA0C15,
0xF204E803,
0xD0F4D1FD,
0xE8CBF4AF,
0xFC17DCDE,
0x1E03010A,
0x171DFBEE,
0x2104CB07,
0xF013EE30,
0x1FF11204,
0x0DF2E4F3,
0xFEDD12EB,
0xF010070B,
0xB9D4CED9,
0x17E6E5D3,
0x0FD9F42E,
0x1B08140A,
0x0FE8F419,
0xEB260713,
0x10D9E5EB,
0xE2EFFD0F,
0xD6CFF2EA,
0xE2F30B06,
0x0CFA2D18,
0xDE250518,
0x010E1FFC,
0x100BE5FF,
0xFCD3ECFA,
0x04EF0918,
0x011902FA,
0x2BFA010B,
0x12141801,
0xED11F909,
0xDAFFB0CC,
0xDFEDC6C6,
0x0601ECBA,
0xFAE3CED3,
0x09000B20,
0x031B14F9,
0x1B131704,
0xD8D108FF,
0xED1011FC,
0x2B3613B7,
0x222FD1FF,
0x381D0A12,
0xE6F3F301,
0x80CBF4EC,
0xD8E3BFA3,
0x06F4C2ED,
0xF5D7D821,
0x01F9EB00,
0x32E52DFE,
0xF6141124,
0x0D11091A,
0x0B1E160B,
0x00FE1201,
0xF71011D7,
0xFA0AFAF5,
0xE206D5AC,
0xEDF0CDA3,
0x15FEFFE7,
0xFF0D180D,
0x03F5D314,
0xF1ECEE0B,
0xF7FAF311,
0xF8DAB1B4,
0xD6AAABCC,
0xECDAEFED,
0xF6F2F905,
0xE7E72A04,
0x171320C2,
0xF52C0BF9,
0x052B2304,
0x0F13D3DD,
0xF901F9FD,
0xFCE1FFF4,
0xE6F00600,
0x0C1503F6,
0x19170805,
0x01F904E8,
0x0018FC1B,
0x1009090B,
0x1AF9E3F2,
0xD2ECB71F,
0x0CC02525,
0xE20D02F9,
0x0DF0F0F2,
0xE20C050B,
0x121E0AE4,
0x192A22EF,
0x3E0EE60E,
0x14FCFA1C,
0x04FE0E07,
0xF3F5E9D2,
0xF6DCD7FC,
0xCB151EE3,
0xDFF50FEF,
0x0C250FEC,
0xFDE7FCF8,
0xDA121EF7,
0xFF18F4E1,
0x1D0BEFE2,
0xDBDD0B05,
0xCD060B0D,
0xE4F0D6C2,
0x0005F4DF,
0x2BF2DB22,
0x020D2132,
0x17FE411C,
0x131B0D0D,
0x0CE41017,
0x042E050A,
0xFA04FFFF,
0x01122014,
0x2620EE12,
0xF4DEEAFB,
0xE8E90C0F,
0xE2020EDA,
0xEAC31200,
0xF3D2E3F3,
0xF221F215,
0xCFE3F317,
0xD2C707D9,
0xF7EE0EFC,
0x0E142419,
0x24110911,
0x23FEBDF5,
0xDFE0D110,
0xF3FBFEFE,
0xFDC9BEF1,
0xBCE71A01,
0x190A0304,
0x020F0EEA,
0x06E6D1C8,
0x1BE11DEC,
0xC9DCF715,
0xDFDA030E,
0xD4E10BF8,
0xD4090CDD,
0x0504FFFF,
0xDB113302,
0xFD0613F9,
0x02EB29C1,
0xD4D30319,
0xDB1509F5,
0x16ECF7E2,
0x242F080E,
0x04F90FF6,
0x09F9D7D9,
0xEEF90F02,
0xCB0F14F6,
0xD9140C08,
0x1C18EF00,
0xF9EBE6CE,
0x1914F204,
0x24FA1DF6,
0x1204051B,
0xF6141AE3,
0xEECFF8FE,
0x0C160A0A,
0x1A03082D,
0xF10B0619,
0xFDE8FED6,
0x06F91E18,
0xFEEB14F8,
0xF5232B22,
0xE4FBF6EB,
0xFBEFECBD,
0x1F25E7F0,
0x3F1003E4,
0xF0000333,
0x05DBE811,
0x04ECE6EE,
0xE8E82C39,
0x18EB0A03,
0xEFD3D924,
0xEF04EB26,
0xFBEA09D4,
0xC8DDE504,
0x11F402F5,
0xDA15FDF4,
0xFDF5DF1F,
0xF3DE0BDF,
0xC7E2E0E4,
0x07DACBCA,
0x1F071001,
0xD9E9E40C,
0xE3E0EC09,
0xFFE1F2F8,
0xF620F9D3,
0x03FBFF1F,
0xF20BF514,
0x0B090604,
0xE40F0102,
0x24DBD0E4,
0xE9F1F807,
0xCBF909FA,
0xE7C905F8,
0xDCEC0DD7,
0x1801F9CA,
0x14030601,
0x160DF6FC,
0x13F5E9ED,
0x1DF90C24,
0xF0DE1521,
0xD3E0C9F2,
0x14DD31EB,
0x022D2329,
0xFF0AF3FA,
0x17EFF6F8,
0xFC13F5E7,
0x1C05F436,
0x2506FEF3,
0x181A0509,
0x0DDEEA0D,
0xD104FCF6,
0x0A0A2CEC,
0xFE151E12,
0xFCEBF8EF,
0xDD29140F,
0xF22711DD,
0x1719E8CC,
0x0905EF0D,
0x0AFFDE00,
0xDDECFDFA,
0x240DFBE4,
0xE81E1304,
0x1A231B21,
0xE917B9D0,
0x16A5CFE8,
0xFCD6D4FF,
0xE2E4FCF8,
0xDAEF2014,
0xBBF1DDEE,
0xF5E00712,
0xDE02FFE8,
0x0AE60B12,
0x292929FE,
0x06080A26,
0xFD07EAED,
0x10F6EF10,
0xE10F07FC,
0xD8020A06,
0x2334FEDC,
0xE6DDE1E1,
0xCEDBB6E4,
0xF731E1DD,
0x2737E10E,
0x2424400A,
0x0B20ED14,
0x33412C27,
0x43E20EFC,
0xCDEFFE2F,
0xE0151130,
0xD1081202,
0x1F012211,
0xE2E7DFF4,
0xF21E0D48,
0x102B3CEB,
0x100E24DB,
0x18F9F9EC,
0xBCEC120B,
0xC5D20FB9,
0xDAED07C6,
0x23CCC5E5,
0x3103121E,
0x2B17111B,
0xF4F9093D,
0xF31F06F8,
0xFDDBEB43,
0xECE308DA,
0xDA05F1FD,
0x1DF715E3,
0xFC262126,
0xE2121203,
0x3202242A,
0xEC2E210D,
0x14320E28,
0x07171BE9,
0xE6F9F9C4,
0xDAF7F7F7,
0xD0D4E90E,
0xEFDDECC6,
0xFAEFB3BC,
0x10B8CD03,
0x24F705FF,
0xDC050C23,
0x22302002,
0x28123121,
0xFDFF1DFE,
0xF90CFCFB,
0x140805F4,
0x090CF911,
0xE2031210,
0x15C8DDD7,
0xE9E7070E,
0xC61702FE,
0x1F26EAEC,
0x35110B14,
0xFEFBFF00,
0xD3B59CC3,
0xD4DFB3CE,
0xF60915D0,
0x13300D17,
0x25172127,
0x1203000C,
0x1061201C,
0x3F0107DA,
0xF50ADF12,
0xDA030CE7,
0x241911D7,
0x04FF12F4,
0xD5F0EAFA,
0x0308361C,
0x0F440514,
0x0FEEF414,
0xEED8D5E3,
0xF60DE118,
0xD8D7E6F0,
0xD3FDF9DD,
0x00F4E3D2,
0x0B030D20,
0x1515200F,
0xFC231512,
0xF1F9E1D7,
0xB3C7C6D6,
0xC7CB01FC,
0x3717179B,
0x1B0B0A04,
0xD8000124,
0x2DE5C2D3,
0x110E0D07,
0xFAF7FF23,
0xF5F51307,
0xF617E7F1,
0x2C0E2FF5,
0x27F708F5,
0xFB25021B,
0x2A28FDF4,
0xFEFE05DA,
0xDDDDD7FC,
0xCEECE9FA,
0xEEEAE9D6,
0x1E0101EA,
0x27FE0502,
0xEC0103FA,
0xB9BDDDFF,
0xEEF8ECDB,
0xDDDDFEE6,
0x08FF150F,
0xF60116EB,
0x3309220A,
0x0F21FB12,
0xF3E8DB2D,
0xF9F612F5,
0xEA0C1A14,
0xF60DFB0F,
0x070FF712,
0xF113FBE0,
0x0F00F7F2,
0x110D0D14,
0xE1062211,
0x0F09E50B,
0x01F9CA0B,
0xFA041817,
0x16F49D9A,
0x11B7B4C5,
0x00DDEA36,
0x02E62921,
0xEE04251F,
0x15113BFE,
0xF9320208,
0xE5F502FC,
0x04F7DCEA,
0xFE0BF7E9,
0xF23EE8DC,
0x26FAF8E6,
0x1706F0FB,
0xFBFB0413,
0x0300151E,
0x14FE1517,
0x11042FEB,
0x2B16FEEE,
0x13F9E91F,
0xF7F2F311,
0xF22ACBF3,
0x01F2EAE2,
0x0B0607FC,
0x07160103,
0xF1EC2611,
0x001603F8,
0xF90D02FC,
0x02F4F5EC,
0x2214D2ED,
0xE303ED1A,
0x05032315,
0xFE012FF8,
0x0F272BFB,
0x19FAED10,
0xF00C0E12,
0x201C1C16,
0x011E01F0,
0xB3F21F0D,
0xD6FBFBDD,
0xD210E6AA,
0x311EDAB4,
0x12F5D4FC,
0x0CEEFBF8,
0x0FEB072A,
0xFA0F0012,
0x07FD2401,
0x001D01F8,
0xBFDE0406,
0xEFF7F6F9,
0x012BF006,
0xFCEAE4DC,
0xF3ED08EA,
0x110BEDFB,
0x10160614,
0x23EF0123,
0x1907F32D,
0xE5D60836,
0xF8DF0C00,
0x020E2CF5,
0x091B1121,
0xEF131700,
0x0BCFC118,
0x95C3D3F6,
0xC6B608C7,
0xEB1AFFC8,
0xF1F801E9,
0x120E1519,
0xDCF513DD,
0xC7A3D8EC,
0xDAE207EA,
0x0DFFF3ED,
0xF123140E,
0xFCEF2124,
0xEEFDF311,
0xF411370A,
0xF705E606,
0xE5D71010,
0x00EF03E7,
0xF6EA00DA,
0xD10D0F0F,
0x10FC130D,
0xF805FFE7,
0xE207FFCA,
0x220CAFC9,
0x19E1CF13,
0xE3F00000,
0xD6DBFE1E,
0xF4E9E7F9,
0xF5DF1CF0,
0xEBF3190E,
0x01151D05,
0xF4FF091B,
0xF71E25F1,
0xD8E0F015,
0xB10CF7EA,
0xF402F6F9,
0xE80A340A,
0xF4E1E2D4,
0x0BEB0B04,
0x11EF00FA,
0xC1E21D28,
0xD4221807,
0xFA0309B1,
0xD625F9EE,
0x272006DA,
0xD6FD06F1,
0x0CFAD4EF,
0x29F9EBF9,
0x07E70F23,
0x3703352E,
0x07EFF915,
0xFB1CFD20,
0xF20C4B14,
0xF5FCF0F3,
0x130CF111,
0xFD133F28,
0xFAE7CFDC,
0x00E2E924,
0xECCBF8FA,
0xF4EDD415,
0x1A010B06,
0x122B1D06,
0xEC0A10EC,
0xF2FDEFFB,
0xEF23EBED,
0x0F0B16CE,
0x0E23D5D0,
0x0D0411E6,
0xE1FA1033,
0xFDF0F4F5,
0xC90909F4,
0xCCFF1711,
0x19DAF712,
0x1115163F,
0xBEF61F2E,
0xF802F8E0,
0xFBE9EECA,
0x3323F0D2,
0x2C01D6FB,
0x12B3F82B,
0xF3E6E409,
0x08F32830,
0x110F14FE,
0xBC09EE18,
0xD4090E08,
0x1D24F8C3,
0x2A28EDE5,
0x2C242819,
0x1436E000,
0x1ADCF1F1,
0x0CCBB0FC,
0xE2DED7E2,
0x01FDFE22,
0xFDF927FA,
0xFA110112,
0x2F211801,
0xEC1D15E7,
0x2A3325F9,
0xFAEDC3E9,
0xC6BFE7FC,
0xE0FCF0FB,
0x2333280B,
0x2E231B08,
0x0A17B3EB,
0x03EEB5EC,
0x16D00102,
0x00FAF504,
0xFE01FEFA,
0x05FF0700,
0xFD06FEFB,
0xFEFAFD00,
0x07FFF9FC,
0x00FF0704,
0x02FCFEF9,
0x03FAFA06,
0x0104F7FC,
0x03FF0605,
0xFA0004F7,
0x030700FE,
0x050103F9,
0xFAFEFCFA,
0x01F90104,
0xF8FAFCF8,
0x050100FF,
0x03F8F9FD,
0xFCF704F9,
0x0204FC00,
0xFAFBFF01,
0xFCF7FE01,
0x000101FE,
0xF9060506,
0xFEFF0002,
0xFE04F7FA,
0x00FEF5F6,
0xF8FB0502,
0x07F6FEFF,
0x0001FEFD,
0xFCFBF907,
0xF900FEFF,
0x0300F803,
0xFAFA0500,
0x05FDF4F7,
0x01F9FDFD,
0xFDFFF8F9,
0x040701FA,
0x03FDF7FE,
0x03FBF704,
0x0100FDFE,
0xF802FD00,
0x0105F700,
0xFAFBFF07,
0xFA00F902,
0xF7FF0201,
0xFDFDFCFB,
0x02FBFEFA,
0x06FFF704,
0xFF040101,
0x0304F7F7,
0xFBFE01FD,
0x05FCFF04,
0xF6F802FE,
0x040701FD,
0xFF050206,
0xFFFE0503,
0x00070203,
0x02FEFC01,
0x02F701FD,
0xFB0503F9,
0xF9FBFB05,
0x0200FEFF,
0xFDFAFBFB,
0xF6FFF8FB,
0xF9FEFE04,
0x03F9F801,
0xF9FEF4FF,
0xFCFCFA02,
0x00FF01FE,
0xF9F7F9FD,
0x05F902F7,
0xFE05FBFF,
0x0605F4FD,
0xF5FD02FF,
0xF502F706,
0xFAFBFF02,
0x0104FAFA,
0xFBFA00FD,
0xFEFFF7F7,
0x04040101,
0x0701F905,
0xF7F900FC,
0xFC050205,
0xF9F9F7F6,
0x03FB07FF,
0xFBFDFFFE,
0xFCFCFCFB,
0x01FCFEFA,
0x00010401,
0x00FAFD07,
0xFEFBF8FC,
0x07F801FD,
0xFBFF04F8,
0x03F8FAFB,
0xFE04FAFB,
0xFB040005,
0x030502F6,
0xFDFE00F9,
0xF0E5E7EA,
0xF8EA02E7,
0xFEF617FF,
0x0B0E28EF,
0xF4FB0E0C,
0x1A15250B,
0x1CFF0209,
0xFA00F1EB,
0x1703F800,
0x08EA0120,
0xEC00E9FB,
0x1410FE07,
0xFCF8F615,
0x08F4F5F6,
0xFE1006E6,
0x08F61018,
0x1F1B1D11,
0xEAFCFB11,
0x09ECEDFE,
0x18070915,
0x0D071E0A,
0xF3FDEDF8,
0xE1F41305,
0xFFF70A03,
0xFCF114EF,
0xFE19FFFD,
0xE60B15E1,
0xEBF71FFD,
0xFA131106,
0x0F13F8F1,
0x19161118,
0xF3F90007,
0x05F7EAF5,
0xFB08F9F3,
0x0E18241B,
0x2C210F03,
0xEBE5F01C,
0x1614F20F,
0x122EF829,
0xF1FD2E03,
0xF1041506,
0xEFF205EA,
0x100E0A00,
0x10FBFDE6,
0xE0F0FBFD,
0x04220922,
0xE1F515FE,
0xEEFC07EC,
0xFBFCDEE8,
0x0905EE12,
0x1EF50D1D,
0xFFF5DFF6,
0xFC0B2C17,
0x0CF8110D,
0xF6EDF7F0,
0xFFF8FAF6,
0xFA2915FD,
0xFB13E911,
0xF60A03F2,
0x0C03ECED,
0x1A000AF9,
0x071D0D14,
0x42020605,
0xFA1F2C04,
0xEC4BFD15,
0x06F905F8,
0x03FDFCE0,
0x0BF5E5F6,
0xF524FCE4,
0xE0EFF1E7,
0x1704ECFB,
0x0EF8FD08,
0x10040000,
0xE3F8F903,
0x0A1B0002,
0x2305F209,
0x10F50B05,
0xF7F10727,
0xED0F0820,
0xF910FB15,
0x1CEE14E9,
0x0B060B0E,
0x101E17FC,
0xF30E000B,
0x0C180BFF,
0x07FCF4F3,
0x08F3FD07,
0x080B0415,
0x0E040C15,
0x0125EFF1,
0x140DEFFC,
0x16241546,
0xEB0519F4,
0x01F9FD00,
0x1401F0FD,
0x07F70BFF,
0x001A1B12,
0x0DFD0907,
0xDC06F008,
0x05F4F4EA,
0xEA0E2113,
0xE0F1F3D8,
0x150AB5B8,
0x101EFA05,
0x4B221310,
0x22F40909,
0xFEDA0770,
0xCF00140E,
0xF60E1DCA,
0xD698BAFB,
0x941D0AFF,
0x1234F6BB,
0xFCE2E1E0,
0x170E0E06,
0xECE2E7D7,
0xB8D3F4F0,
0x2003CF93,
0xFAD3F500,
0x2B392823,
0xF4E9E321,
0x1DF5170B,
0xF0250504,
0x220AFE2E,
0x121A0ED9,
0xC8A0E5F0,
0xF71F3939,
0xF7FD0BCB,
0xE0DAEEE8,
0x02F7D1F7,
0x1D142611,
0x0E1B0920,
0x13080035,
0xF7090E05,
0xE109FCF4,
0xE5DDCFAD,
0xE2C8EEFA,
0x00ECE820,
0x21E8341D,
0x13372650,
0x2438391F,
0x070EE617,
0xE4EE1301,
0x05F7BDB8,
0x22FDA2D7,
0xEFF906FA,
0xF403FB22,
0x0D0910EF,
0x092DFB1B,
0xF211152B,
0x0FF7D4E8,
0x182838F7,
0x26071209,
0x1604CC26,
0xE0EA2524,
0xE3E9F4D2,
0x03E7D0DB,
0x00FF00F1,
0xF1F5EDFC,
0xFA1CE900,
0x1F0BE5F7,
0xEEE3F60C,
0xB6E503F8,
0x39E2EAA0,
0xF5E2D626,
0xCE132924,
0xFB08250C,
0xF7ED0011,
0xFAE2F107,
0x04F804D9,
0x22050604,
0xFA020220,
0xE1E3E50D,
0xCFDA0BF1,
0xD719D1CE,
0x231800D8,
0x05EDD713,
0x18F5F024,
0xDCF92F35,
0x1E1019EA,
0xF3D9CDE7,
0xE1ED2225,
0x0B1B3106,
0xEE1B0501,
0x24F0C518,
0xD7C1FFF8,
0xFD0914FA,
0x19002BEC,
0x0211001B,
0x25F8EBFB,
0x0F12FB0D,
0xB6E2E6DE,
0xEAD7F4EB,
0x08000CDA,
0xDF23221D,
0x151F0AEF,
0x12F2E0FA,
0xC4B1E420,
0xE9FEF6D6,
0x000EE8DB,
0x2E272E11,
0x0F0B04E3,
0x0801F8F7,
0x2713DDF3,
0x24D7DBF5,
0xD0FFCEEC,
0x0101E1E3,
0xFFF311CD,
0xDE0B1717,
0xF4F80E20,
0xD7FAF4F8,
0xECE7FDFF,
0x1E0F19F5,
0x01E1DEF6,
0x1625FC04,
0xD7E2DAE0,
0x93CDFDF8,
0xAFC6F9C4,
0xD70AEDD4,
0xD0BBD8D7,
0xF80515E7,
0x101010D2,
0xEF26012A,
0x04140D1A,
0x30262BF2,
0x10FEF1ED,
0x0EEDD5BC,
0xF7EDF40F,
0x0F06F4F9,
0x281BFD03,
0xE40A021D,
0x0E241515,
0xDCE2CBE7,
0xF7F9FBE7,
0x030BE5F9,
0xEDD8C5EA,
0xE3D1E5F2,
0xE1F5FCD4,
0x0A22D8E0,
0x01DF03C7,
0xDC072500,
0x042413F6,
0xF81419E9,
0x0109F70B,
0x20F10BF8,
0x0501F00A,
0x10010A20,
0x101D0C03,
0x2C02160B,
0xFB11F216,
0x1514E929,
0xF303012F,
0xEDFB1AF6,
0x0BFAD722,
0x23DAFC12,
0xFD22F7D1,
0x230BE11C,
0x1703E4FF,
0x21031207,
0x17261B19,
0x170CEF2F,
0x11FB060E,
0xF5FA17F9,
0x05210EEF,
0x33F1E7F5,
0xEBFE0BFB,
0xE700ED1A,
0x1EF3180C,
0x0323F3FD,
0xC2141E22,
0xE7E2E7CB,
0x0409F1E1,
0xCDC3DDE3,
0xD5F002F6,
0xF1D1E9B9,
0xE202E6E0,
0x17232806,
0x080E0718,
0x1EF70F0E,
0xFD012200,
0x10FC0113,
0xE601021A,
0xF8F0FE0A,
0xEAFF1007,
0x00E3F4F5,
0xF8DAFCFB,
0xE8DE0A21,
0xDC1D31E4,
0xDED203FD,
0xE8E7E9DA,
0x02E8F7E3,
0x12F5EFEC,
0xEFF824E5,
0x0B17D7F0,
0xE6CAF3FF,
0x27140AFB,
0xF6E1D7D0,
0xD2D7FD1E,
0xCBD7B0CC,
0x1CBFBBF4,
0xD8E0F7F7,
0xF9F6FE00,
0xFB07F9F7,
0xFEFD04FC,
0xFDF9F501,
0xFE04FA06,
0xF4010808,
0xFE0303FD,
0xF70504FB,
0xFFF5F700,
0x0201FFFD,
0xF9FEF700,
0xF902FD04,
0xF80603FA,
0x00FDFBF9,
0x0500F6FA,
0x0300FD03,
0x00F60204,
0xFCFB01F6,
0x05F9F9FD,
0xFFFE03FD,
0x0001F503,
0x0104FFF9,
0x01F703FA,
0x04FE01F8,
0xFDFFF904,
0xF8FB00FD,
0xFE05FEF9,
0xFCFAFAFB,
0x08FC01FB,
0xFE03FBF9,
0xF5FAFCFA,
0x02FAFA00,
0xF701FA00,
0xFDFF02FE,
0xFA070100,
0x02FCF7FB,
0xFDF6F906,
0x000002FC,
0x0201FE00,
0xF4F9F9FC,
0x0107FB03,
0xF8FC02F3,
0x00FEFD02,
0xFDFAFCFB,
0xF6FA06FB,
0xFCFB0402,
0xFE0500F4,
0x0000F801,
0x03FF00FF,
0xF8F9F908,
0x00FC0002,
0x0203FD06,
0xFDF403F7,
0x03FE0303,
0xF8FDF800,
0x010501F4,
0xF8FDF6F9,
0x03F8FBFD,
0xF7070203,
0x02F7FCFD,
0xF5F402FA,
0xF8FBFBFA,
0xF9FFFC05,
0xFB07FCF7,
0x05F7F8F9,
0xFE00FCF6,
0x000002F9,
0xF7030706,
0xF8FD03F7,
0xFC05F9FD,
0xF602FE04,
0xF9F7F801,
0xFBF606F7,
0xFEFDFC01,
0x00F90301,
0xF4F4F8FF,
0xFBF5FFFC,
0x0200F803,
0xFE02FA07,
0x0101FFFF,
0xFFF9F5FD,
0xF80007F9,
0x0005F7FE,
0x02FBFCF7,
0xFCF8F8F9,
0xFDFAFE06,
0x0306FC03,
0xF4FEFE04,
0xFDFDF6FA,
0x01FFF500,
0xF704F4FA,
0xFE0605FD,
0xFC00FE02,
0xFFFC00F7,
0xF90204FD,
0xF60002F7,
0x00FFFA02,
0xF70400FA,
0xFC02FBFC,
0xF6F70002,
0xE5F906FE,
0xF11511F1,
0x201BDFD4,
0xD92C1302,
0x0D13F6DB,
0xF3EAFCC7,
0x23DA0506,
0xF50FF1FB,
0xF7002417,
0xF6E8E503,
0xF0EA001B,
0x04F5FDEC,
0xFBF3E8FB,
0x01F8F906,
0x242F1D0D,
0x04F3FAFF,
0xEFF610DC,
0x04DCFFFC,
0xFDE41440,
0xE0F9D6FE,
0xE5FFE107,
0xE5FAF0ED,
0x030BFFDB,
0xE2D7D6CE,
0xD9D6C6E0,
0xEFEBEEFE,
0x0DF21BAA,
0x09FEC9FD,
0xEF14F80B,
0x101E300E,
0xD2EFFAE8,
0xF3FA0DE7,
0x1126F6E6,
0xCD020E07,
0xF1E7D4E5,
0x2609F9F1,
0x14FBEB3F,
0xED092207,
0x020E0512,
0xD7E8F308,
0x07F40C01,
0x0CF902B2,
0xECF3EE11,
0x12182F16,
0xDCD9F400,
0x25E7E1FA,
0x2C0610FC,
0x1C21F4F6,
0xE1E9E1E6,
0xE0AEBCD0,
0x14EC08F3,
0xF217182C,
0x230DE40A,
0x09EC1638,
0xE11FFDE8,
0x384613FF,
0xECDDDE1A,
0xEEC8E00F,
0xE42F00F4,
0x0DF0E3FA,
0xD7D3CEED,
0x95ADCEED,
0x2CEEE2D3,
0x18F20A14,
0xD7FA050F,
0x220C270E,
0x28FAFED3,
0x2BFCEC12,
0x05052B50,
0x04070E06,
0xFBEEFD08,
0xEB0FF3C3,
0xFBF5F9F1,
0x0A2508F8,
0x1F140A04,
0xFFDFD9EB,
0xE8FED134,
0x1A131703,
0xF6F5F707,
0x2DF0E6F9,
0x18D2D8EE,
0xD5ECF819,
0xDF0FB7D5,
0x24E701EE,
0x09FD3810,
0xEE07000E,
0xCADB0AF1,
0x020D0ADE,
0x0CE6F003,
0xD5061103,
0xDDEFFDEB,
0x37302002,
0x11023037,
0x11210415,
0x00F3051E,
0x092902F8,
0xF4C407FF,
0xFB123C11,
0xFC280606,
0xE908F603,
0x0500EAE4,
0x0C0EFFF8,
0xEFF11418,
0xF80CF4F5,
0xFCF3FD09,
0x16F305F7,
0xFDFD0B0D,
0x0906E6EA,
0xF20301FD,
0xE9E0F1F7,
0x00EB05F5,
0x06F9F4EB,
0xF2010007,
0x16F5D3DB,
0x1204FD20,
0x07192C14,
0xEA0214F6,
0xECE7F4FE,
0xE003FAF9,
0x0DEEDEE3,
0xD4D6E9EB,
0xEBF0F909,
0x00E70CFE,
0xE808EEFF,
0xF7031807,
0xFFE5F502,
0xF5E302F3,
0xE8F90B09,
0xE4EEF4EE,
0xF7FBF3CF,
0xE7F4EDFC,
0xEE00F6FF,
0x04F1EE00,
0x0FF40B04,
0xEF05171D,
0xE9E5F6EC,
0xF8EAE202,
0xE7FBF9FC,
0xEF0B03EA,
0xF3F30FFB,
0x0BF102FC,
0x01120CFD,
0xF8F30D1A,
0xF7F7F1F0,
0xE6F7FEFC,
0xF3DEF0FF,
0xEAF20BF1,
0xF3FBFBF3,
0xF819EEFE,
0x0507FA02,
0x09200504,
0xFE0110F4,
0x150AF608,
0x1AF7F9FF,
0xF5EC0804,
0xECF9FE04,
0xE6E705E6,
0xECEF1600,
0xECFFDEF0,
0x06FBECF6,
0xF1F308EE,
0xF5FBE50E,
0xFBFFF9F7,
0x11F2F702,
0xFC11161C,
0xFBF6F713,
0xF11115FF,
0xF1FDF409,
0xF8F1F5F4,
0x1313F7E6,
0xF9141202,
0x0C06FBF8,
0x0F02FE0E,
0xE0E6EAF7,
0x0806FE00,
0xF5EAE5E5,
0xE6050007,
0xFCF107F2,
0xE90AF0E8,
0x1605E803,
0x04FB1BF3,
0xD804FF0D,
0xFFF0EFE1,
0xFCE8EEF4,
0x0305FBDE,
0x02F5ECEF,
0x00E2E1FE,
0x122BF9F3,
0xFCF50B19,
0x0F0A050D,
0x0113FB12,
0xF0F4F2F7,
0xFE0803FD,
0xFE02FAFE,
0xF6EDF3FE,
0x03FFFFFC,
0xEE13F009,
0xE7FAFBE9,
0xEFFBE9EA,
0xF8F9EDD9,
0x0505FCF6,
0xF9FFF7FD,
0xFBF90106,
0xF9FB0305,
0xFA040303,
0x05F8FCFA,
0xF7FC05FB,
0xFCFB00FB,
0xFAFD0004,
0xF5F9FCFB,
0xFD010504,
0xFCF9FD02,
0x0102F9FC,
0xF5FDF301,
0x01FC0205,
0x00000104,
0xF9F60701,
0xFBFC0502,
0xFF00FBF8,
0x00F702F8,
0x0105FF04,
0xF7F2FBF7,
0xF9FA05F6,
0xFE02FEFC,
0xFD0502F9,
0x08FEF8FB,
0xF9010109,
0xF7F800F3,
0xFBF9FCFC,
0x03FF01FA,
0xFBFD04F8,
0xF4F5F803,
0xFDFC05FD,
0xF601F8F8,
0xFF00F1FE,
0x08FC00F9,
0x00FDFA03,
0xFDF7F8FA,
0x07F9FBFD,
0xFFFC00FD,
0x05FDFFFF,
0xF9FAFDFD,
0xFFFFF4F3,
0xFB06FAFD,
0xF805FCF9,
0xF901F7F8,
0xFFFEFAFA,
0x04F6FF01,
0xFAF6FDFA,
0xF40302FC,
0xF8FF0106,
0x050300FE,
0x04F9FB00,
0xFD07FD04,
0xF4FFF400,
0xFFFFFB04,
0xF7F8FCF6,
0xFF0506F2,
0x05F8F9FA,
0xF904FDFF,
0x00FF04F9,
0x0602F601,
0xF900FEFB,
0xF4FEFB02,
0xFAF6F702,
0xFD0702FC,
0xF700F4FD,
0xFAFBFFFE,
0x05FD0505,
0xFAFEF9F7,
0x0806F8F9,
0xFFFDF8FD,
0xFCF10302,
0xFCFCF6F9,
0xFCFBF900,
0xF6FAFF03,
0xF6FE01F8,
0xFCF7FCFF,
0xF503F6FB,
0x02FB0703,
0x0500FF01,
0x02F8FA07,
0xFAF801F9,
0xFEFFFCFE,
0xFAFFF9F7,
0xFBFB00FB,
0xFD07FF03,
0x06FC01FB,
0xFB06FDFE,
0xFB04FD01,
0x02FAFCF6,
0xFBFC01F6,
0xF800FC08,
0x020001F9,
0xFBF6FAF7,
0x00FC02FA,
0xFBF70004,
0xFAF8F9FC,
0x02FDFA08,
0x0304F403,
0x07FE0D0C,
0x1915EEDA,
0xEDF1EEF1,
0x14F4D5DD,
0xFA030C06,
0x02053C2E,
0xFFF901E5,
0xDEDEFB0B,
0x00EDEEEB,
0x2406E6DA,
0x0701FE25,
0x02131711,
0xF6F9F0D7,
0xC2F1FB00,
0xE9FDFDF0,
0x25F5BEF3,
0xFEDF1305,
0x0D1C0026,
0xECE9ED09,
0x1BE3F4D4,
0xDBE2C9F9,
0x0BF4F501,
0xDADFFEF1,
0xF5242708,
0x16F0EEF2,
0xEBF6FCF9,
0xFCFD0507,
0xECBA2422,
0xE1F51015,
0xFFF2E4D1,
0x172EF7EA,
0xF2120D0B,
0x09EFB8E9,
0xF9DBDBEC,
0xEC051C25,
0xFD060303,
0x10111FDD,
0xE0FCFA09,
0x2404F4E1,
0x02D9E0F8,
0xF60E1C01,
0x1EF0D812,
0xC8E503FF,
0xEBE1DDC7,
0x020DEDE6,
0xFEF2EE07,
0xB6DAF716,
0xE3EF04E8,
0xF8FFF4BB,
0xFB141411,
0xF4F7DD08,
0xDEE8F8F6,
0xDE25F5CA,
0xF80D06EE,
0xF805152B,
0xFE0EF7F2,
0x210BD207,
0xFCC93415,
0xA3DEEEF8,
0xF5FDECD7,
0x0E15DCC2,
0xEFE6FE21,
0xEA03F90A,
0x0ED4F0DE,
0x10F4D3D8,
0x2712FB19,
0x050EEE11,
0xE0DA10F3,
0x0B1501EA,
0xB4F7F308,
0xFB160503,
0x0D160CE4,
0x30090421,
0x25BF0A13,
0x12182019,
0xE8030DCD,
0xFBFBF412,
0x07FA28D4,
0x1216F804,
0xF6EA02E5,
0xFCE9E43F,
0xF4D6FCEA,
0xEDF12E1A,
0xB52D4914,
0xF31504E4,
0xDBC1E1D5,
0x0AF630F0,
0xFE09000B,
0x0DCEDD01,
0xF5E6E4EE,
0x30FF09F7,
0x27230106,
0x0614CDE4,
0x06180E09,
0xFAF6F202,
0xF2C9D4D6,
0x19FAF100,
0xFA16040E,
0x24E80CFB,
0xE6F40218,
0x1C10D0B7,
0x2312EA02,
0x2F1F0922,
0x0414E415,
0xF406EBF0,
0xFCFD340B,
0x0CF203EB,
0xC806FE2C,
0xF0E005DC,
0xDAF3E2CE,
0xD8D5EC13,
0xFEF903F4,
0xC21B07EC,
0x171100F7,
0x06D7F0D1,
0xA8E80EE4,
0xCAC7EAF0,
0xDDDAEBED,
0xC7DCFF00,
0x091514BF,
0x1A23CCDC,
0xFF07F4F8,
0x00E93A01,
0x112CEDFB,
0x05052A09,
0x2004CDC9,
0x06E9E022,
0xFD09EC03,
0x1CC6ED10,
0xC9E0FA13,
0xF6EF1127,
0xC0D9CFCE,
0xE4F105D6,
0xEF02F7D3,
0xCCDAB1F6,
0xEABBF20C,
0xE2D2F6CE,
0x0021FC09,
0x08F21FD9,
0xE233F6F3,
0x031A25E2,
0x0C15DBF5,
0x0400F10A,
0x09E5F406,
0x2639F009,
0x26E61815,
0x10E11218,
0x060E0125,
0xF7EE0823,
0xF609012D,
0x0A022D0A,
0xDAD51119,
0xDB0816FF,
0x0EF90DFB,
0xF832FFE3,
0x2215F20A,
0x29FFD5FB,
0xF3D50D36,
0xFA170316,
0x2C081105,
0x0F14081D,
0x0F01FF0A,
0x0E212F19,
0x2C1926F0,
0x193AE6F8,
0x1207142A,
0x052E141D,
0x22200D36,
0xD5F5085F,
0xF209BFD7,
0xEEDBE0D6,
0xC6DBE6F6,
0xECFEFDD1,
0xE6D9E8C2,
0xE9D6B4C1,
0x07161DE4,
0x0903BE1A,
0x15EA2706,
0xFB13221F,
0x2D0F3221,
0x010B121A,
0x16F70433,
0xDAFC2916,
0xF0010DEA,
0xD1F0F7F0,
0xE4010DF2,
0xEF1B06EF,
0xDFD4DADE,
0xD11312D2,
0x0CD1DAB2,
0xEC0005FF,
0xEC0D1BD0,
0xF638B6CE,
0xACED08E3,
0xF0E600EB,
0xF9DBE7E5,
0xB4DB1508,
0xCCEDC5A5,
0x03C0CDD3,
0xF8EE02F2,
0x0C0B0C0D,
0x16120A01,
0x04FCF603,
0x10F4F2E6,
0x220718FE,
0xE2162421,
0xF3E81DCE,
0xFD02DF2E,
0xDBBFF9E5,
0xD80AE1B0,
0xEEE3D6E4,
0x08FB1306,
0xCE220D08,
0x14FAFBFB,
0xCBC6D611,
0xAAE31210,
0xF10F0FF4,
0x3910F3DB,
0xA52813F9,
0x070D0FAF,
0x0717DFEE,
0x07F7FF0F,
0xE2E401EF,
0x28F4DC0B,
0xEB080701,
0x13F9E5ED,
0xF3091A14,
0xF506D3EC,
0x2DF3FBF1,
0x17E7C7FF,
0xF3E0E820,
0x0B12FADF,
0x3F2BE5E7,
0xFFDAE30E,
0xF8E9D710,
0xFD1A3F1A,
0x1105160D,
0xE4FE282B,
0x0AF707D8,
0x0A191E13,
0x00232603,
0xEAFAF30F,
0x07EF1705,
0x0FF60615,
0x293EF0E1,
0x0CD7F3F0,
0xE700ECFC,
0x07EAF30C,
0xFBE915FE,
0xF7F50D3C,
0xF9F6F40E,
0x24130CF9,
0x21040FF4,
0xF510FEEF,
0xFF11EDFD,
0x04FA0410,
0x21FCB713,
0xF2C513F8,
0xE1D8F81B,
0xF0DC19FB,
0xCE1F08FD,
0x1D1219D5,
0xFC0FF9FA,
0x1BF7E7EC,
0x06EBFBFC,
0x01DB1412,
0xFF1107FF,
0x08FF0331,
0xF5ECFD2D,
0xC8F40417,
0x02143613,
0xEF08081A,
0x0B06F8E5,
0x1F0C07E5,
0x070DF80C,
0xD31413E1,
0x04FCD9C9,
0x24D813DC,
0xEC0FE60C,
0x09F53520,
0xFE00FD14,
0x08E2EE14,
0x03F3FBFC,
0xD30B1EEA,
0xCDF1E5D5,
0x1BEAF5F4,
0xFC131600,
0xF2F407FA,
0x2EF409F8,
0x150C3128,
0xFE051006,
0xF5FB0E0A,
0xDAFA1B05,
0x310915EF,
0xAAC7F71F,
0xD3D8F52D,
0xD3FAFCDF,
0x211ACFD3,
0xF30DF0F9,
0xF30AF208,
0xF508131D,
0xCAF4041F,
0x2241D0E4,
0x24F9010D,
0x031AF214,
0x1EEDBFD3,
0x0CDED31C,
0x15E510FE,
0x12D40C17,
0xD70B2FFB,
0x0FFBFAEE,
0xE0E6E820,
0x13092205,
0x20100B1B,
0xEEEB1623,
0xE4EA2711,
0xF403E3EB,
0xD5C529F1,
0xEB1115FF,
0x0819F503,
0x1B0902F4,
0xF60E101D,
0x1E26E8F9,
0xFBDEE1DA,
0x1DB6D7FC,
0x030B1317,
0xF8010DEF,
0x2A2E2FF3,
0x2F2D24FC,
0xECEEF212,
0xEB0EDDF0,
0x0F0DFF03,
0x082B060C,
0xFBF90FF8,
0x09F3C4F0,
0x1ADFD1E9,
0x0502EC1C,
0x580A1B06,
0x0DE31C2C,
0xF5EC181E,
0xF6C3F816,
0xEF0BF807,
0x0E163022,
0x0F03DADC,
0xF0F8F806,
0xF8E7ED04,
0xF0C7F712,
0x13282F29,
0xE2E40710,
0xF304C0AC,
0xEB111A0F,
0x032243D6,
0x0123D6CE,
0x02F9EDD9,
0x232B01D5,
0xDBCDE1F6,
0x00D8F9D6,
0x05EB3BF8,
0x103A0DFC,
0xDEF9F534,
0xE8E1202E,
0xCCFF08E9,
0x2113F8EA,
0x01EFBE06,
0x13E6F204,
0xEFE6CF10,
0x17EAFA1B,
0xE9EBEBCF,
0x11E4F4D0,
0xE0E7090B,
0x1AFEE71B,
0xE6EFF5EA,
0xD1DA17FE,
0xEA2613E6,
0x271B0710,
0x22FA4110,
0x1714FB35,
0x0CE3F212,
0x0CDCF8F2,
0xFC10F50E,
0xE4DF213F,
0x0B0603EF,
0xF513F00D,
0x2324FBFB,
0x233CFD1C,
0xEE1B1F36,
0xFB1B03EE,
0x0003D1C8,
0xE2EEEF0B,
0xE1F4F3F5,
0x0715E7DD,
0xFCDDED2E,
0x25050510,
0xE40BF809,
0x0AFAECE5,
0xEC122209,
0x0C0F1CF1,
0x02E8FE04,
0xFF0B08FC,
0x1E1A0209,
0xE3E2D4ED,
0x150CFBE1,
0x1D0CEA0F,
0x161E0E07,
0x45F51401,
0x15233612,
0xD9EAE824,
0xECF4DDFE,
0x03C406DC,
0xD800F1FE,
0xF2E5F1E3,
0xE8FE160F,
0xB6D7F801,
0x12DFDCCD,
0xB5DDF0F8,
0xE90D19F6,
0xEA1109DD,
0x12FD00D3,
0xD143191B,
0x050BFBF0,
0xF6F6DFDD,
0x0802F2F4,
0x0BEDE8F6,
0x1EE3DFE8,
0xE8DFEC0B,
0x09FA03F6,
0xF5F2FA07,
0xF11BFF09,
0x07E9F41D,
0xF7E30825,
0x09F3123F,
0x1508F013,
0x0A01E30B,
0xF4CEE805,
0xD9DDE3F0,
0x0A0D06E0,
0x14FFFB1C,
0x01F83136,
0xF50D4C06,
0x003112FE,
0xE81B18FF,
0x10F2CE07,
0xD0CBE8F7,
0xF3F6FFFC,
0x0514FEDA,
0xE2CAF8E6,
0xF6E1FBE2,
0x1D17E008,
0xEBDFFB2D,
0xF4DA0E22,
0x101F1509,
0x18FDFDFF,
0xF1ECFCF5,
0xEA090DE6,
0x0D15CEE4,
0x261D030A,
0x05C4CA01,
0xAFCC240C,
0xDAFAE8F5,
0xE2DF09FA,
0xE3FD0918,
0xE2F516EB,
0x0C03EAFD,
0xF3EA0314,
0x05FA05F6,
0x19D10BF9,
0xFCF70312,
0x0AFAFF40,
0xE4D9FE2E,
0xD3091013,
0xF01F220C,
0xEF09EBFB,
0xDCD3E7D4,
0x06F7E6DB,
0x23260105,
0x0304EBCB,
0xEAD3A5E9,
0xF2D1F2FA,
0xF3EFE226,
0x1D0A13FF,
0x05EBF607,
0xF1EA0323,
0x0ACCF0EA,
0xFA06F7D1,
0xFBE5DADB,
0xEB000902,
0xF00A1BEF,
0xFECE0604,
0xFFEB172E,
0xE9E51FFF,
0xE1E2FBF1,
0x02F423DF,
0xF3101A01,
0x0E231CFE,
0xF1EAF004,
0xD4DDF7ED,
0xE7D6D7CB,
0xECF0D5E2,
0x051A19E0,
0x1F10FEFF,
0xFBF100F6,
0xF9F60702,
0x01FCFB01,
0xFFFC07F8,
0x04FCF3FA,
0xF7FCFB05,
0x00FF0301,
0xFAFBFDF5,
0xFEF8F604,
0xFEEE01F5,
0x01FBFC06,
0x0307FAFC,
0xFFF9F900,
0xF7F1F3FF,
0xFFFD01FC,
0xF6F7FD08,
0xF4F6F8FC,
0xFEFB02FB,
0xFEFDF3FC,
0xF5F3F9F9,
0xFBFE01FD,
0x0306FBFB,
0xFD06FC00,
0xF4FBF9F6,
0x0504FAFF,
0x0101F5FB,
0x0507F400,
0xF9F601FE,
0x03FD04F7,
0xFB05F701,
0xFBF7FBFA,
0x0002FDFD,
0xF9FDF9F9,
0xF100FCF8,
0x0401FDFF,
0xFF000103,
0xEFF8F700,
0xF900F3FA,
0xFE04FC03,
0xF8F8FDFB,
0x05F705FB,
0x01F2F504,
0xF9F80307,
0xFF03F9F7,
0x03FFF804,
0x03F70306,
0xF904FFF5,
0xFC010004,
0x02FD05F9,
0xF8F7F707,
0xF8FAFDFD,
0xFFF700F8,
0xF9F700FB,
0x020303FF,
0xFA03FEF7,
0x0303FEFC,
0xF6F9F604,
0xFCFDFA03,
0xF8FD04FF,
0xFFF5FD02,
0xF7FAFBFE,
0xFAF70200,
0x070006F3,
0xF5FFFC05,
0xFA00FE01,
0xFAF8FEF6,
0xFFF3F9F9,
0x01FCF7F8,
0x00FBFCF9,
0xFE05F3FB,
0xFFFDFAFA,
0xF80101FD,
0x04FDF3FC,
0xF7FCFBFB,
0xF9F201FA,
0xF7F5FAFB,
0xF801F800,
0x0301F9FD,
0xFAFF00F5,
0x0203FE03,
0x0103F7FE,
0x0206FB02,
0x050005F9,
0x07F6F703,
0x03FDF905,
0xF6FF02FC,
0x0606FDF6,
0xF8F5F701,
0x0100FAFA,
0x01FCFCFA,
0xF402F503,
0x0102F9FA,
0x000604F7,
0xFFF5FA02,
0xFC02F7F6,
0xF5FCFBFB,
0xF101F8F4,
0xFEFBFEFF,
0xFAF8F902,
0xF5F7FCFD,
0xE8161E10,
0xD7FEF2D7,
0xDBC0E1C1,
0xD9C8F4F0,
0xF90BDEC5,
0xF01E1CF7,
0xF6D4F7FA,
0xB4FDED13,
0xF91045FF,
0x0303D9ED,
0xE30918FA,
0x18E3C7FF,
0xF2E41B27,
0xE2FF1122,
0xFC201AF6,
0xCAB6D212,
0xEF0A09BC,
0xFDD2ADDA,
0x03EBEEFC,
0xDBB4D203,
0xE6EC1224,
0x01110A02,
0xE6CD2008,
0x03FFFF1B,
0x0D0A02BF,
0xC80B1E2F,
0x01F819BF,
0xC9ACD905,
0xCEB5071A,
0x01EBEDD8,
0x101D09D9,
0xFA13F8EB,
0x0DEBB7DD,
0xDAD2DF00,
0xBCE80BFE,
0xD60D1D00,
0x0A0E0395,
0xC309EA06,
0x1C2A23D7,
0xCD0CF0FD,
0x0508FF28,
0x1D060FF0,
0x03FC0C17,
0x0BF01816,
0xFD21FEF1,
0x21FA091B,
0x041D3D12,
0xCAED0C0E,
0x180203D7,
0xFE1F02EA,
0xEC0AD7F2,
0x1805E81F,
0xE1E598EC,
0xF4E4E901,
0xFEE3090A,
0x0719F703,
0xF6FDFACF,
0xDE0AF8E8,
0x0B09F404,
0x0F0C06E0,
0x0F0BCD01,
0x21D6E1FA,
0xFAFE2408,
0xF8D4DB05,
0xA5F102F0,
0xFEEEEEFE,
0xE6D02600,
0xFE21FE0B,
0x04D5E211,
0xCEDCECFB,
0xECE6FFE3,
0x2406E097,
0x0EDFD603,
0x01A4DA03,
0xE50A110B,
0x10ED0504,
0xDC070819,
0x1C29170E,
0x2B1C270A,
0x0718F303,
0x2722CE11,
0x2B2C2010,
0x11280002,
0x1CE91409,
0x181A1107,
0xEFE0E8F0,
0xE5FA28FA,
0x00EC0B13,
0x06B3CC0B,
0xDD0212EF,
0xDEFA10DE,
0x261E04CA,
0xF1ECBED4,
0xF0F21A15,
0xE6E201ED,
0x1A1E02EA,
0xF1FF0DFD,
0x3317F4F5,
0x06F8D016,
0xEC021E14,
0xF0C1F01C,
0x1B13F8FA,
0xDCD9F8F2,
0x25FEC9CB,
0x07EC1C22,
0x0E07220A,
0xFCDFDE01,
0xE3EEECFA,
0x12D6F606,
0x0E3C0BE6,
0x1D130919,
0x0CFF16F5,
0xF0EEBAED,
0xFBE3DBFF,
0xDE0A03F8,
0x1809E11C,
0x1E0A3214,
0x16FE1000,
0xE5E9FD0E,
0x05EBFEE0,
0xD0F9C9EA,
0x02DBE2E4,
0xC6E4FEFE,
0x02181DEA,
0x1BE0E4F8,
0xCDD5F50B,
0x0EF221E5,
0xE7E4F300,
0xE6D4B0CB,
0x120205BE,
0xF40E0D04,
0x0129200E,
0x0B08E6DF,
0xFEF802E8,
0xFAFC0A13,
0x01F4DCDD,
0x161224E9,
0xF1E01D1A,
0x0EFF13F4,
0x01110412,
0x151C2513,
0x01DCF82A,
0xBFFBF3FA,
0xE8EAECD4,
0x06170DD6,
0xE1DAF4FC,
0xB1CFE5F6,
0xE5ECEBD2,
0x1610EDB1,
0x0B0B0BF0,
0x07F7E212,
0xDAECF2FE,
0xC6130800,
0xF3250DE5,
0xE518FAFF,
0x080A0C1E,
0x1EF5DF11,
0xCFD52006,
0xB9D8B8E5,
0xEF1B08A0,
0xF91EB2D7,
0xE0E12335,
0xE5F9EAE6,
0xFDFB23E1,
0x0C22E4CD,
0x0800DE17,
0x0AFBE205,
0xFBF4E803,
0x1A0D11E7,
0xE1001609,
0xF0D8F913,
0x0A2810FB,
0x151C0313,
0x22E5FEED,
0x0A0D1D04,
0xD715FFCA,
0xF808E2FE,
0xECE717C9,
0xFB2CEE0F,
0x1AE427CF,
0xFA00F42F,
0xF3E8E91F,
0x0BE5222A,
0xC227231B,
0xE5C5DECA,
0xE3CEEEE8,
0xFAF720FD,
0xFBFB0804,
0x34E2E303,
0x1BE5DAF4,
0x120B1B26,
0xECFAFBF1,
0x0211D1DF,
0x092C150F,
0x0FEBECF6,
0xF9D0CFDB,
0x1E0AFEF0,
0x0C260F18,
0xFEE80CD9,
0xE70F0D17,
0xE3E4E400,
0x05F6F5F1,
0xF1DCEA12,
0x0FD8FD0F,
0xEDF9D4EA,
0xF9ECFF24,
0xF41718D6,
0xF712FD25,
0xE700E7E2,
0xFD032901,
0x0DF9CDF5,
0x00F01815,
0x1006D6E3,
0x04E4F407,
0x07EEE5F6,
0x08110AFB,
0x0401FE1D,
0xEB04120E,
0xF8CFCDF0,
0x0211FB0C,
0xEEE2FD04,
0xDC05EEFF,
0x07E908F9,
0x0716EE0C,
0x0EEF270D,
0xE2EB052D,
0x1F11FE02,
0xF3D502FC,
0xF51009FA,
0x02FDF0F9,
0xF4E10012,
0xEE133909,
0xD3F0FDDE,
0x23D2F4E4,
0xE6120018,
0x140D080F,
0x07DEE4EF,
0xEBE1FCF9,
0x02FCDBFE,
0xD5DFF6E4,
0xECE5DDE8,
0x1D19FBE0,
0xF8F7FB0F,
0xEA0D09F1,
0xF1F9081B,
0xFC0C171B,
0xF306F2F3,
0xE0D9FEEE,
0x07D9F2E7,
0xD40BF814,
0x01F2F7F8,
0x0005FB0A,
0xF504F0EF,
0x06EDDAE8,
0xEFFAE9E8,
0xFFF70111,
0x0D090905,
0xF8FE0D05,
0xF119F9FF,
0xF1E1DED9,
0xDF010BE4,
0x2407FB0D,
0xFBE90301,
0xE50615F3,
0xE5FEFDF3,
0x1EFE01ED,
0xF7EDDCE4,
0x00CCE80B,
0x3A02FCF8,
0xF0E82129,
0x00E3E708,
0xFAFDF7D4,
0x1818F5F8,
0xE5EA1E1F,
0xF2FFD3C7,
0xED0ECFE6,
0x04F912F3,
0xF9E103E6,
0xE70600F4,
0x0A0803F7,
0xF705EFFF,
0x02F307FB,
0x1D131DF8,
0xC8082009,
0x2AF4F4F9,
0xE801F2DE,
0xE5EDF301,
0x1321F8F1,
0x0ED9E214,
0x0A27FDFF,
0x0F11FFFF,
0x081E130A,
0xF7FC01F7,
0x0CF7150C,
0xDFF3F2F7,
0xDDD5F3F7,
0x2A351DF3,
0xEAEE0707,
0x0209EA11,
0x03E9DCE8,
0xDAE2E40B,
0xFBF2FDDA,
0xFFE0BFEE,
0x01FB0F06,
0xFB0C1E09,
0xE1100EF1,
0x18040ED0,
0x08030F31,
0x1B050DFF,
0x11F0F6F3,
0xEC0C1A14,
0x0B2C03E0,
0x0A131CF7,
0x11FD13FE,
0xD3FCE7FC,
0xE200F305,
0x1A1B1DE1,
0x19270C19,
0xF8CFDC12,
0x0C250314,
0x0FF40F0F,
0xEF18FC11,
0xD900270D,
0x050110E2,
0x071C15F1,
0xD5F30E09,
0xFCFC0D10,
0xEFEE0E0B,
0xE90DE2E9,
0xF407DCDA,
0xE1EC03F7,
0x080A0DDD,
0x09ECBA0E,
0x03A3D4E7,
0x08F0151F,
0x002A11FF,
0x101A1024,
0x02F9EDDC,
0x13030112,
0xC20817FB,
0x021BE3FB,
0x15EDFDF7,
0xF4F71722,
0xC9141C2F,
0x19FE17E1,
0x101000F1,
0x1919061E,
0xF2E50BFA,
0xF216E0F1,
0xFE031CFD,
0xF1F715F7,
0x090500EF,
0x1CECD9D9,
0xF4E0E11A,
0x01E7FAEA,
0xC1F803FA,
0x050705E2,
0xF2FF1F2B,
0xF50F02F9,
0x0A20F8D9,
0x14FCB6F1,
0x1DFE0EF3,
0xEA0A0D1D,
0xEFE2F4ED,
0xF20920FE,
0x12152EE5,
0xF0DF050D,
0x120DE00E,
0x3BDFD2FB,
0xD5ED1022,
0xCBDEDFF4,
0x1D06F0C8,
0x12F7EF0F,
0x1C13ED1A,
0xDEDF0D1E,
0x0425F9F7,
0x320202E4,
0xEF07F231,
0xFA0A21F0,
0xFE17F1C5,
0xF90CEBE0,
0x0102EAF5,
0xF5DE09FF,
0xE31905F5,
0x11E308FF,
0xF7C4DEDF,
0xFCE9EE3A,
0xEC1DFCE2,
0x32E1DEE5,
0x07F5FF1E,
0x0018F0FA,
0xEDE9F208,
0x142EEEF9,
0x07F2E6EC,
0xF6F3FBF7,
0xFAFDFDE1,
0x2413E3D8,
0x2F26E8E0,
0x09CEE240,
0x17DBDFFF,
0x0401F6F8,
0xFBF803F9,
0xFBFC0503,
0x02FB0004,
0xF90406FE,
0xFE060402,
0xFA01F702,
0x00FDF7F7,
0xF7F8F900,
0xFAF7F7F6,
0xF502FA00,
0xFEF80503,
0x0500FFFC,
0x05F9FC00,
0x04FA05F7,
0xF6FBF8FA,
0x04F602FE,
0x03F90002,
0x06F701F8,
0xF6FCFAF8,
0x060006FF,
0xFCF8F6FD,
0x0002F9FE,
0xF90605FA,
0xF9F80004,
0xFAFC04FE,
0x05FC0106,
0xFF0301FC,
0xFAF90102,
0x00040100,
0xFFFFF502,
0x0504FBF5,
0xF70103FF,
0xFE000206,
0x01020402,
0xFCFEFEFF,
0x03F5F8FC,
0x04F8FCFB,
0x0303F6FA,
0xFBF7FBFF,
0xF9FFFC01,
0xF7F6FEFA,
0x01F6FEFE,
0xFC0501FF,
0x00FEFFF7,
0xF7FCFAFC,
0xF703F9FE,
0xF80403F9,
0xF8F807FB,
0x04F80104,
0x02FFF6FC,
0xFBFE01FC,
0xF8FCFC03,
0x00FCFCF8,
0x03FC00FA,
0xFE00FCFC,
0xF904F5FE,
0x04000500,
0xFD0301F9,
0x010203FB,
0xFCFE0003,
0x03F70206,
0x05000603,
0xF6040405,
0x00F7F803,
0xFCF7FDFA,
0x00FAFAFB,
0x0601FFFB,
0xFF000206,
0xF8FE03FE,
0xFD06F9F7,
0xFEFA04FE,
0xFC020102,
0xFFFEF605,
0xF902F603,
0xFFFBF7F8,
0xFAFBF9FE,
0xFB0501F5,
0xF603FBFD,
0xF8FCFCFE,
0x03010602,
0x00FB0504,
0xFFFC05FF,
0xF9FE05F7,
0x04FBFBF9,
0xFB03FE02,
0xFEFD01F8,
0x010601FB,
0x03030201,
0xF8000601,
0xF9F7FCFC,
0x02FC0104,
0xFCFFFF03,
0xF802FF03,
0x04F7FCFF,
0x04FE01FA,
0x04FCFCFC,
0x01FB0202,
0xFCF7F600,
0x0106FF03,
0xEEFBDCEF,
0x0B0911FC,
0x15F9180C,
0xEF0C0F05,
0x29FFFA04,
0x1E0E0003,
0xE806081D,
0x2A14E8E1,
0xFCF7F7F9,
0xF904E2F6,
0xD9031005,
0x1D2214F5,
0xE3E409FD,
0x0EFEEDD7,
0x06FDF0E4,
0x0EFC0308,
0xE9F5FEFC,
0x0005D7E8,
0x0FE7E905,
0x14331EF7,
0xF838F7F8,
0x0C0B1C05,
0xF7E715E9,
0xF22A1312,
0xFF060F06,
0x15FCF0F7,
0x00F8FC04,
0xFE0117F6,
0x19F9EC04,
0xC6ECF80B,
0x0304120A,
0x07E5F00A,
0xFCE5100E,
0xF61D0010,
0xFB0B140F,
0xEEFC160B,
0xFCDAEAF4,
0x39F60406,
0xF5F51DFF,
0xF91FE1F4,
0x06F100F8,
0xECFAF1EF,
0xFBE9CEE3,
0x1CF5F500,
0x052AF701,
0x32F51BE1,
0x0AF0F3D3,
0xFC22E905,
0x0400EA0B,
0xFD020414,
0x1411241C,
0xF5F6091F,
0xDFEE0E18,
0x250F04ED,
0xED11F6E6,
0x0F1EFC19,
0x18E20516,
0xDAF90EE7,
0x001506FA,
0x25ECF0FD,
0x02FFFDFD,
0x0108042D,
0x211E0907,
0x30FA0A1B,
0x0BF90115,
0x19FBF010,
0x06102A01,
0x161F002C,
0x0E060C0F,
0x0923FC08,
0xFEF40EDE,
0xF800FE06,
0x12E70FF3,
0xF2F0F217,
0xFEFBF7E5,
0x16F2F5E6,
0x0809ED05,
0x1F020522,
0xFF221001,
0x2A06F90F,
0x12E50A0B,
0xEAFA0237,
0x0AF0FAF0,
0x09050904,
0xF0EEFFEA,
0xFA18FF19,
0x1F0A1203,
0xFD1AE106,
0xE20B1C18,
0xFBED01E1,
0xEDFBE1F1,
0x1A0E1BD8,
0xF009F81C,
0xE7EEECEF,
0x1403F9EA,
0xE4EFFA0C,
0x1604FDFF,
0xFBF1120F,
0x000EEEEA,
0x1DEDF3E6,
0x0B241C15,
0xF00BFFCF,
0xECC9CAC7,
0x2AE8FBEC,
0xE5EFE02D,
0xF2ECE00A,
0xCAA9FBEE,
0xC5FA1303,
0x24052808,
0xEB0F2704,
0x0BF10408,
0xE6D4F5F1,
0xC3C21C01,
0xCC272B16,
0x07F72FF2,
0xF20717FD,
0xDCE007F0,
0xEDFCCAD9,
0xEFCB0801,
0xDBC3ECE7,
0xBA241617,
0x1B1304F5,
0xF6E6E5DE,
0x22F30AF6,
0x0A1F090D,
0xFE1B2521,
0x040A19B0,
0xE5D9EE0D,
0xF4F7170E,
0xF0D91034,
0xEDE60527,
0x16F7DF09,
0xFFD4F41F,
0x04D801FC,
0xD6070D1C,
0xD3F602FF,
0x0F0CFF89,
0x1AECF2EF,
0x1DF5F4B0,
0xCACDF816,
0xFAC5E304,
0x1A10DB02,
0x17E41E0F,
0x34DF0506,
0xE7EBC0E1,
0x04FEFD2B,
0xEFEF28F4,
0xD1FF0F11,
0x21EDF4E8,
0xF0FD02FF,
0xF1E9CA1A,
0xECDF020D,
0xF3DECDF0,
0x01FEB8EA,
0x17FE0904,
0xE4ECF90C,
0xDBF3EFDA,
0xF7FCECDD,
0x0B0F0BE4,
0xEADFFB0E,
0xEAFE0712,
0x1709020A,
0xE715F70F,
0x19F6D8E6,
0xDFD80101,
0xEFF3F4F0,
0xEDD1F919,
0xF8E90CFB,
0xF1E1010F,
0xDCF3FCF6,
0xF8EADFD4,
0x0CF3E4D3,
0x1CECEB1A,
0x03C9FC13,
0xD8DCEF0A,
0xE9C619EB,
0xDC322AFE,
0x010EE6EF,
0x0607F2EF,
0x080BF7E8,
0x250DE615,
0x242010FE,
0x2936D2FC,
0x06EBED0A,
0x110FEFFE,
0xFF1A1AFB,
0x011C091A,
0xEBF621FC,
0xD9F7FAFF,
0x04160EC4,
0x252801C1,
0x070AFEFF,
0x220B90D5,
0xADEBF5E8,
0x0B11FAC7,
0xFE1D17F1,
0x0A333409,
0x0918C9CA,
0x07D2BBF1,
0xEDE9DAEE,
0x1B0CEEF7,
0x14020E13,
0x09DE231E,
0xEBEFF910,
0xE60E09FF,
0xE6170626,
0x14FFFFC7,
0xF322FAFA,
0xF210E100,
0xE7F4F8DF,
0xE9FAFBF6,
0xEDE817BB,
0x0221DCE1,
0x0D040CF3,
0x1107FD1D,
0xFB17060E,
0x182E1024,
0xFC2B1025,
0xFFEEF1D8,
0xF7FFF8EB,
0xF9E6FA01,
0xF207FCFF,
0x1ADE0AFD,
0x14091D18,
0xEB10232B,
0xEEEAE4EA,
0x0103F915,
0xF6131222,
0xD9F200FA,
0x1A01E1F2,
0xE9F23B26,
0x130611DC,
0x0E0AFF0E,
0x12021D19,
0x04302C2A,
0x04FB2A16,
0xF3DFE0F5,
0xEB06E9FB,
0xF2E9F602,
0xEDD2F7DE,
0xFD0BE5EE,
0x230AFD04,
0xF4CAF401,
0x072635F9,
0xFB0B0E02,
0x052E0FEC,
0x0615F804,
0xFFE8F7F6,
0x0100E1FD,
0xE514355D,
0x091C0EF0,
0x0E08DDCA,
0x05F3F4DD,
0x161EF017,
0x09011B0B,
0xF49FB4E9,
0xCF1FF93A,
0xF6F4F8FF,
0xE3EB0AED,
0x18FAEED2,
0xECF9F3D6,
0x182A12FA,
0xFE00DADD,
0xEACCDEFF,
0x0BFC01E3,
0x05F607DA,
0xF7091412,
0xD20C2816,
0x323420F9,
0xEFF31C01,
0x13131917,
0x2E1D1312,
0x37271949,
0xE4020621,
0xFF0CDAE0,
0xE0E7EBE4,
0x0DFAF9E9,
0xE9E90813,
0xA7F9FFED,
0x01F9F7E6,
0x111500BF,
0xEEDEE5F5,
0x00D5F3FE,
0xE6F50F02,
0xE5EE05ED,
0xDCE5C8CE,
0x1C00CD16,
0x05090D14,
0x1A28FCF2,
0x2D310A0C,
0x1C3007F8,
0xB0B2DE0D,
0xCCF00EFC,
0x21EAF1DB,
0x0F13191B,
0x1F1E0302,
0x1122F40E,
0xFEEB07F5,
0xEBE4F000,
0xE5B7C0AD,
0x1109F0DD,
0x24241C14,
0x000B0138,
0xD207E7CA,
0xEF1E04EC,
0xF703F6F4,
0xF70734F9,
0x143D15EC,
0x1107CAF5,
0xE2CBE5FE,
0xCEC80509,
0xF8201FCC,
0x0535F90B,
0x490AF7E3,
0xFCFDEE0F,
0xA9B4F712,
0xE3F1E9AD,
0x0307CD06,
0xD6CFD018,
0xF207DCDA,
0x2A0D09ED,
0xFE161939,
0x010F2EFC,
0x1502F318,
0xEF090F2F,
0x05F7F9CF,
0x2104F604,
0x1127E418,
0xFD1E0704,
0x20211AE0,
0xFF191B0E,
0x04F1D907,
0xEFFFE302,
0x12FA1114,
0xC2ED0601,
0x01F4E0D6,
0x00F3FFF6,
0xEA06F5F6,
0xD406FDD5,
0x0700FFD9,
0x0E08FFD6,
0xF90F0FF8,
0x0AEEE5FF,
0x05222FFF,
0x02DDE7F2,
0x0CFAFCFB,
0x121A1705,
0x0F0FFC15,
0x200D071C,
0x21061921,
0x1619270E,
0xFFEDEE02,
0x0100E9FE,
0x3ADE161C,
0xE21E1F1E,
0x2D101FFF,
0x1301EB20,
0xFDFA2616,
0xF13C09FE,
0x37FBF409,
0xFFE3FD03,
0xFF1BFFFE,
0x0EFEE6E6,
0xF0CFFDFD,
0xEF1C2B06,
0xF80B28E7,
0x08172402,
0xF8130B1E,
0xE61B1821,
0xF40E06EA,
0x0CF800DC,
0x2B1717FE,
0xCBF0F91B,
0xEFF2ECAB,
0xE80DFBFB,
0x1FF4BEF0,
0xF4D3C231,
0xE4B63B12,
0xF0F5F8DD,
0xFDF7F01C,
0x0A14110B,
0xC6BBEE0F,
0xD6DE18D6,
0x1E011AFA,
0x21FF03FC,
0x0AFC1A1A,
0x081D1A0C,
0xF5041406,
0x0DEEE01C,
0xF4FF1519,
0xF1202147,
0x05FF16CA,
0x000C0C16,
0x11E60301,
0x29F9FAFA,
0xF2ECFE1B,
0xC2BAE011,
0xDBF2DDE6,
0x11BBDDDA,
0xCFCDDBED,
0xE60F181E,
0xD5F2F4DC,
0x0F04E2C2,
0x13F3EAFA,
0xF6DFE61D,
0xF9D8D7D8,
0xE4B3000E,
0xBBC61200,
0x00FE3201,
0x050EF5F7,
0x1CFF0E09,
0xD8D9F022,
0xF9D9271E,
0xE916262A,
0x071827FA,
0xF2E9F901,
0xDEDF1AD2,
0xC4B8F4F9,
0x0AEF0DE8,
0xF2AFF208,
0xD4141A21,
0x05101BE7,
0x07F7E7F5,
0x02E60305,
0x1800E10C,
0x0A223A30,
0xEFF319AD,
0x0ECDF606,
0xDDF50D35,
0xC9E22012,
0xF2D7E7F6,
0x1411000D,
0xF611EC13,
0xF10514F4,
0xD0E0F9FF,
0xECF3EFF7,
0x1005FBBC,
0x19F310FC,
0x0F0EFE06,
0xCFF7FF24,
0x00D7EF14,
0x0A01F028,
0x03F82011,
0xF7CFF0FA,
0xE1C1BBC0,
0xE9EDFEFB,
0x04EA070D,
0xE0F31715,
0x17FE0908,
0x1508D7CD,
0x031C210A,
0xFE0A3423,
0x1F14D3F6,
0xF60CF7E6,
0xFDE9F900,
0xED0C0509,
0xBFE1F3C3,
0xF9EAEAD9,
0xFEF504EF,
0x97E8E81F,
0x00E80E00,
0xECFFF7F5,
0x0318320B,
0x0E01FD11,
0xFAF3F015,
0x14FF10F9,
0x05D0FD27,
0xFFFEECD8,
0x0FB4D702,
0xCDE9FDFF,
0xFB070403,
0xFCF2D5DA,
0x01EBF2FC,
0xFDD60900,
0xF2F4FC13,
0xF0E013E8,
0xE0250B27,
0xFBEFC6E3,
0xE4E30D11,
0x0200D11C,
0x20F31015,
0x19141308,
0x0F14CADF,
0x09F2F4F2,
0x262E2AF0,
0x0A2BEFF7,
0xFDFB0BFE,
0x03FE1DF8,
0x06EAE90B,
0xF700F600,
0x0AFBFFC1,
0x0F15EF06,
0x150DBDED,
0xC806FBEE,
0x022107DC,
0x292B07EC,
0xEA0702F5,
0x061BEA04,
0xFF2612F3,
0x0E03F1FA,
0xFCFDFC03,
0xF7010403,
0x02F9FD03,
0x02FF00FA,
0x00FAF606,
0xFE05FF00,
0xFDF6FC04,
0x0402FDFB,
0x0202FF06,
0xFAFB0703,
0xFC01FEFE,
0xFC01FBFA,
0xF9000500,
0x01F9FB00,
0xFC00FDF5,
0xF4F60306,
0xFBF60401,
0x03FDFF00,
0xF70304FA,
0xFFFBFA03,
0x00FD0401,
0x05FDFAF9,
0xFBFBFE00,
0xF7FE04FC,
0xFC04F7F7,
0xFC01F9FD,
0xFDF7FA04,
0x0400FA05,
0x00F8FBFA,
0x0205FF01,
0xF9FCF704,
0xFD04FD01,
0xFD04FC04,
0xFD0204FB,
0x02F6FAF8,
0xF8FEF7FF,
0xFCFE0400,
0x02F6F5F9,
0xFBFF07FE,
0xFE00F7FC,
0x0105FDF7,
0x00FF0103,
0x00FBFC03,
0x040201FA,
0xFDFBF703,
0xF7F5F9FF,
0x02FFFBF7,
0xFFFEFF03,
0xF7F90603,
0xF80300F9,
0x05F9F7F7,
0xFE070002,
0xFAFAFEF6,
0x0304FDFD,
0xF5FF0504,
0xF902FCF6,
0xFEFBF8FE,
0x03F6FAF7,
0x01FC0604,
0xFA0200F8,
0x02FFFF01,
0xFA04FCF7,
0x04FAF8FB,
0xFF01FEF7,
0xFCF10001,
0xF5FCF5F9,
0xFE00F5F5,
0x04FEFFFF,
0xFCF60007,
0x030405FC,
0x0204FCFD,
0x03F9F701,
0xFBF4FBF7,
0xF6FB08FF,
0xFEFCF6F6,
0xF6FFFAFA,
0xFAFF00F8,
0xFFF90601,
0xF7FB05FB,
0xF8F50000,
0x000405FC,
0xFFF9FAFC,
0xF1FCFD05,
0xF7F9F802,
0x06F8F805,
0x05030203,
0xF80104F7,
0xF4FCF7F8,
0xFD03F900,
0xF6FE00FF,
0xFD02FD04,
0xF8F7FEFC,
0xF8FB01F9,
0xF8FBFE00,
0x0302FDF7,
0xF80105FE,
0x00FDF302,
0xF9030201,
0xFAFEF600,
0xF602FBF5,
0xE7F2F6EE,
0x05150807,
0x19110C10,
0xED381EF5,
0x00030201,
0xF90804E8,
0x1EE3F802,
0x15EE0B12,
0xE7F105FD,
0xFDF2FAE5,
0x1A05F80D,
0x1915F2F1,
0x100BFF2A,
0x2F160403,
0xED161103,
0xE50A111F,
0x1003FFD3,
0x0C050910,
0xDCED0906,
0xFFE6D5C0,
0xB8F1FCCB,
0xDA19010D,
0xF9FE06F3,
0xEA01FCE6,
0x0FE3BED3,
0xDCD3D205,
0xFF0207B7,
0xF40622FC,
0xF434F7F6,
0x000F0ADD,
0xF31BEFCC,
0xFB0F1309,
0x0805E3F3,
0x0AFF1204,
0x130B0F17,
0x0B0A00E1,
0x0FF7EB19,
0x38D1F9FD,
0x0DCED32D,
0xD1F9E2FE,
0x0AF0E302,
0xEF05F30C,
0xF6E72504,
0xFB0004FC,
0xCCC9BBF4,
0xE4D4E1DC,
0x11E4D10C,
0xF62711E7,
0x04FAFAE1,
0x03E5D6D9,
0x252C1B11,
0x04F917F0,
0xE038CDE3,
0x170C1AE0,
0x1E17080C,
0x031E04E7,
0x00D4AC14,
0xE3CD4AFB,
0xF62CEBD9,
0xF405CEF3,
0xD7EFE0ED,
0xD5E1E9F6,
0x1817DAE9,
0x1CC3E6F2,
0xFC190804,
0x18F3E838,
0x01002118,
0xFE1403F9,
0x24080307,
0xADFA0B21,
0x0C18FE10,
0x200FFAFD,
0x17FB100E,
0x03332607,
0x0F03130A,
0xF72F03A5,
0xFCFFD33D,
0xF8EA0BE4,
0xEBE6F8D8,
0xDEF5E303,
0xF3FBFF03,
0xCBC9D8CE,
0xC9BA08E0,
0x182F10E8,
0x2D161707,
0x170BDD0F,
0xEBD60512,
0xE41913D8,
0x1DCEB0D1,
0xFDEFF7F0,
0x211BF005,
0x10FAE82C,
0x03F91313,
0x0111FF0C,
0x220801FB,
0x110DEBFE,
0x00F6E6ED,
0xFDF70622,
0x18DB0F2C,
0xD7F9F3FB,
0x0D04EEEA,
0xF2EF080F,
0xE918FC00,
0x16F71902,
0xDDF90703,
0x0C0BCEDE,
0xFC0C17F1,
0x121403D6,
0x04F9F6F9,
0xFF0C162F,
0x201C18CC,
0xFBF80615,
0x20FDE104,
0xEC0D020B,
0x0AF8F7E2,
0xE4CFE7C7,
0x04DAAC06,
0xF3EE080C,
0x1FE50A06,
0xF20214F3,
0xE2FB0E1A,
0xF40B3A17,
0x0C3CEFFD,
0x10F004FD,
0x0AC4E9F9,
0x1305E8CA,
0x0710E419,
0x2923170F,
0x2E331EEE,
0x03FE0718,
0x0D00EAF0,
0xEBD6F4FA,
0xE0EEFDFC,
0xDE04FEF9,
0x2307DFF2,
0x2CF3F31D,
0xFEFF00E2,
0x1E01F607,
0xF2DEF5EC,
0x01FE06FF,
0xF7F9D914,
0xF1000E0D,
0xFF0B2300,
0x020106CB,
0xF9FA0238,
0xECF71A17,
0xF70E15EC,
0x241AF2EC,
0x03EA01F6,
0xDDF0D5D0,
0xE6F9C6EB,
0xF4DAC5E2,
0xF4F1E5E1,
0xE9E6F7EA,
0x1CFC0CE3,
0x05D9F113,
0xE20915FC,
0x202BFBCD,
0x3813F8DA,
0x0BEEDF2F,
0xF8E31F17,
0xD0041125,
0xF91103E5,
0xEEF6E609,
0x05DF0600,
0x0200F2DB,
0x00EEEE02,
0xC7EA10C1,
0xF81111CB,
0xF4D4E1D6,
0xEDECDCF0,
0xF0C4DBF1,
0xD6FB120A,
0xEE1131F6,
0xE2FAE8FD,
0x13EF1C28,
0xF5071F14,
0x0305FAFC,
0x13F6F5F9,
0xEAFADB20,
0xF1DE0D27,
0x0B0709FA,
0x0E420DF5,
0x2CFEFB08,
0xFCFB0922,
0xF7001F45,
0xE81502CC,
0xE8E1EFD4,
0xD0E4CCE4,
0xFB10EED8,
0x100CDBD7,
0xF8DEF127,
0x0AF30A30,
0xF00122FC,
0x27F4F1FB,
0xFA05F8ED,
0xE70B0D30,
0x030BEEF6,
0x16FBFEE5,
0xE6030310,
0x00F9E5E5,
0xF5DEE5F1,
0xECEAFDF9,
0xD504FBF6,
0xFE11E9E3,
0x280BFA04,
0x0CFFF509,
0x0301D2E8,
0xECD4FB09,
0xF61303ED,
0x0DF70F1C,
0x30252DF2,
0xEB0AFCFB,
0x0EFEDBED,
0xEF03F303,
0x02FE1004,
0xE3D42AF6,
0xEF05DCF6,
0x08DFED16,
0x06FBFFF2,
0xED05000A,
0x01040BE5,
0x092903E2,
0x050EE521,
0x1B0218F3,
0x0FFFFA01,
0xFAFFF6FA,
0xFAE711F3,
0x0BE8D7EE,
0x03E8E2E5,
0x26FF0103,
0x00EFF11D,
0xF2E0121A,
0xEBFC08F6,
0x190FF7D9,
0xF2E9E3E1,
0x01F4EA14,
0x311BF413,
0x021EFF1F,
0x030E0D19,
0x01E30BF9,
0xE403EF03,
0xFF24E2E6,
0xF9F00704,
0xFEFDF905,
0x0413FF06,
0xFA14EA03,
0x1E00E5FC,
0x42FB0109,
0x00F91605,
0x22EB3039,
0x162B3F19,
0x3C2DEAF5,
0x0B1E2A23,
0xEA2A2AFE,
0x0A06FA0E,
0xF800FDFA,
0xFEFB1E05,
0x19F6F9F9,
0x2BE401EF,
0xF007FA18,
0x000BE626,
0x33112E31,
0x2820FEF3,
0xFA0CF210,
0x1313363D,
0x33FB1EE6,
0x17F3DFEE,
0x0AEDFB10,
0x081AFCFD,
0x0E18F905,
0xF1E4E211,
0xE9E63518,
0xF2F6EBF6,
0xFD00F8F1,
0x27FB1106,
0x101EFC13,
0x07EF0F01,
0xFC10FA0A,
0x051415F7,
0x050B1614,
0xF0FF0103,
0xF5F0FB0B,
0x0F260205,
0xF7F6EF07,
0xEDF0FF20,
0x16F1EFFC,
0x1B1B0BDE,
0x25F9073A,
0xFEF1EB1F,
0xF6FE1924,
0x080FFA22,
0xEE1513FE,
0xF4F903EE,
0x0EE804FC,
0xF5EBDAE8,
0xF4EEE709,
0xE1F3F6E7,
0x0FFEFCEA,
0xE8FED3F9,
0x1A07EBF2,
0x0BF5D11C,
0x301BF003,
0xE121F2FF,
0x371402D7,
0x05D9DAE0,
0x10FF02E2,
0xF31A0A09,
0xE804FB26,
0xFFCEF3FE,
0xE7FAF7DA,
0x01FEFDC9,
0x0339D2DD,
0x16EA07F8,
0xE1F1E109,
0xE4EA0E1B,
0xFCFD1909,
0xF5F3060C,
0xE7FF11E1,
0xFFF5DEF3,
0xFEFC09FB,
0xE311D101,
0xED0CF5E1,
0x051C03F3,
0xF5111808,
0xDDF0F3F3,
0x0AD5DAF5,
0x0AEE13F9,
0x05FDDFE0,
0x13F8E9F0,
0xD6F8FAF0,
0xF2FEE1DF,
0xFB04F4F9,
0x05E7150A,
0x2C2D04FD,
0xFB011B0D,
0xF6E7C93C,
0x3F092B17,
0x0AE70D22,
0xF6E61C0E,
0xF6010BEA,
0xF71D05F3,
0x1B02E0E9,
0xE30B1212,
0xFCE2DDD8,
0x0FE8E9F0,
0x1AFDF403,
0x16E7F3F8,
0x0DECE9EB,
0xE90B0504,
0x00192D1F,
0xF9FE01D8,
0xFE07F308,
0x0B04F80D,
0x18FAE809,
0x03E80AF7,
0x0C02FC29,
0x19E0CEF6,
0xFAF1FD13,
0xE804E904,
0x00DFFCFE,
0x052103EF,
0x2D0BFB04,
0xF9E1EDEF,
0x1BE6F3F5,
0x00010EF9,
0xFA0C380C,
0xF5090D1B,
0x1519FAE3,
0xF1FF180D,
0xF9FEF90D,
0x0008F700,
0x0F14FDF4,
0xF4191D0F,
0x0D18FAF9,
0xDC0BFB05,
0xF40EFB00,
0x00FFE602,
0x070107F5,
0x011208E6,
0x090F0ADD,
0xE30FE1FE,
0xE2D7ECF8,
0xE8E207EF,
0xFBD510FF,
0xFDEC2302,
0x0DF1FDFD,
0xE30B09FF,
0x07CFF4E9,
0xF501110D,
0x3106FAFB,
0xDFE0DD26,
0xE8DB12FB,
0x221EECF7,
0xD9F4FF09,
0xE1041B21,
0xFE05F9DF,
0x09F00E15,
0xD70B0706,
0xFFDDCAF6,
0xFEF8FE05,
0x0406FDFA,
0xFCFDF504,
0xFF070301,
0xF7FCFB03,
0xFEF601FC,
0x01FDF7F8,
0xF600F1F3,
0x02F8F900,
0x04F6F401,
0xF8F8F706,
0xFCFAFAF6,
0xF1FD03F4,
0xF9F8F0FD,
0x01FEF9F8,
0x04F8F9F7,
0x04FAFEF6,
0xFCF9FD02,
0xF70203FE,
0xF7FDF8FC,
0xF803F906,
0xFEFDFDF8,
0x0504FB06,
0xF8FBF9FE,
0x03FDFFFC,
0xFAF4FA02,
0x04F5F901,
0xFA0702F0,
0xFCF7FAF9,
0x04F8FBF6,
0xF8040706,
0xF7F9F603,
0xFFF9F905,
0xFDF8FEFA,
0xFBF5FFFC,
0xFB02FB05,
0xF4FCFEF9,
0x0105FBFE,
0x03FB01FC,
0x040106FD,
0x04FC0401,
0x06FAF8FB,
0xF4F602FC,
0x030103F8,
0xF801F7FD,
0xFEFC04F8,
0xFDFAFBFC,
0x00FBFDFF,
0xFCF6EF00,
0xF8020601,
0xFE060200,
0x01030306,
0x01FCFCFC,
0xFEFAFF00,
0x01F8F8FA,
0xF9FEFAFB,
0x01FF02FE,
0x03F7F9FB,
0x04FDF0FD,
0x0001F2FD,
0x06F7F902,
0x00000001,
0x010508FC,
0x0101F6FE,
0x05FBFD02,
0x02FB0502,
0x05F6F6FE,
0xF8FBFCFA,
0xF504F4FE,
0xFDF9FBFE,
0x0403F5FD,
0xFC05F902,
0xFD01F801,
0xF3FFF9F5,
0xFFFFF9F0,
0xFCFCFBF6,
0xF5FC0107,
0xF7FAFEFD,
0xF70405FF,
0xFBFE02FF,
0x00070201,
0xFD0304F9,
0xFBFF02FC,
0xFE02F5F8,
0xFBFCF8FD,
0xFAF302F9,
0x00FDFC00,
0xF60607FE,
0x07FDF9F8,
0xFAFDFBF4,
0x0101FBFD,
0x01FA08FA,
0xFCFBFEF5,
0xF9FF0200,
0xFAFD0003,
0xFEFAF702,
0x010101F5,
0x03FF0503,
0x01FE00FC,
0xFFF800F8,
0xD7D8F9FA,
0x000603F1,
0x2011F5E5,
0xF2F80315,
0x09EDF9F6,
0x1BFDE7E2,
0xF3DDE62B,
0x010802EA,
0xF403F2FC,
0x0CFF0A07,
0xEDFB0913,
0x0C1D0BFF,
0xE707FD1D,
0x17FD08ED,
0xF8FDFB19,
0xF50E1B07,
0xFFFDF6E1,
0xECF0F809,
0xFA080926,
0xFC0E0303,
0x06FE0EF5,
0x0D021308,
0x0815E6F6,
0x201DE912,
0x0A080DFE,
0xEC10FC08,
0xFCDF04E2,
0x0F1908F4,
0x12011314,
0xFBF9F009,
0x13F60207,
0x0A05FA0C,
0x03F8F607,
0xEDF406FE,
0xEC1209F2,
0xF9F1E3E2,
0xFBF0F8EE,
0x25DFFF00,
0xEE21F928,
0x0CF5F6FC,
0xEFF4E0E8,
0xECF619E1,
0xEC1A2708,
0xF00911EB,
0xDCFCEBEF,
0xF5F9FFEA,
0x0F020AF4,
0x030FF206,
0x0FEA0212,
0x0C1708FF,
0x08F219F9,
0xFF022308,
0xE007FCF3,
0x0707F5F6,
0x1104F5FA,
0xE5F2D0E7,
0x10F7E8E4,
0xF4EA010D,
0xFBF60EF5,
0xE505EDFC,
0x02EBFB0C,
0xDD030C00,
0x2823F4F7,
0x0314E7F1,
0xF6090B10,
0xFFE0EF08,
0xFCFC08F8,
0xF4FBFD0B,
0x16E0FAF1,
0xFAF9151A,
0x06FE0AFD,
0x0DFBF0F6,
0xEFE9E90E,
0xEA050106,
0x00F4000E,
0xF60609E8,
0x00F8ED05,
0xF000040E,
0x14FDF8F3,
0xF907F1F4,
0x06DC1A0C,
0xE9F2D6FB,
0xE7EAEF1A,
0x0D0EEFE9,
0x01FB1403,
0x05FF0711,
0x0A1D07EB,
0x1606FBF0,
0x27E5DDFA,
0x09E2FD24,
0xFFF2FCEE,
0xFDEAFD2D,
0x0910E50A,
0xEF0EF306,
0x05F9DDF6,
0xF200DFE4,
0xEDDEEDF8,
0xF2EF040F,
0x0A1CF212,
0x0700F400,
0x091502F2,
0xC7B9DE1F,
0xD3C3F9F2,
0x03150006,
0x0B161616,
0x150B0E3A,
0xF628091B,
0xF60FE2A9,
0xFE09CAFF,
0x2713F722,
0x1806F50F,
0x2304F304,
0x05FAF41C,
0xCCF9F4DE,
0x142F07E2,
0x0F29F7F3,
0x272B2211,
0x22050904,
0x15DE0517,
0xE6EE1117,
0xD0FE120C,
0x1D01DEEC,
0xF7F7EF0C,
0xDD0003E6,
0x050AF4D3,
0x0003F0E3,
0xCAF9FF13,
0x05E1D4AF,
0x04DCBC00,
0x0AFDFB13,
0x1D08223C,
0x24E0D712,
0x12E53F29,
0x06180D2E,
0x0FEB1116,
0x0A0C1DF5,
0xF7FE0402,
0x1615F1F9,
0x0C292702,
0x11FDFCFD,
0x16FD00DD,
0xEDCAF0CE,
0xB9EBDBE5,
0x09CEDAEA,
0xE8B4FBF4,
0xD8F6EBDD,
0xFCF4DBC5,
0xF2F2DDD7,
0xF503E21D,
0x1DFF2707,
0x1DE8F504,
0xE2EC0A22,
0x16F8243F,
0xE9011220,
0xEDE9F20A,
0x05F9F2DF,
0xA4071FEB,
0x221CBFC2,
0xFEC3D2B5,
0x081A1405,
0x2117E1EC,
0x18E80E22,
0xFFFE24F5,
0xF3253C1C,
0x0A0AF3ED,
0x0A2306F1,
0x10100BD8,
0x1D20DBF3,
0xD2DB0626,
0x303714E5,
0xF53502D6,
0x19221C21,
0x1401FAFF,
0x2FEBFE01,
0xEBDAE9EE,
0xF7D03548,
0xEC2C20F4,
0xEFF6F3D6,
0xD8160C17,
0x39FBFFDA,
0xFBE0D4D9,
0x0F110F1E,
0x02110FEA,
0xC8E8A0EA,
0xFAB5CFD7,
0xD9ECEBE5,
0xE4EA01F2,
0x1CD41D1E,
0xD5234E29,
0x0B020B01,
0xE0DC2523,
0xFA2E23C6,
0xF40FD813,
0x04FDECF7,
0xF9220A16,
0xF8111611,
0xF7090504,
0xE1F90BF6,
0xF40B19F6,
0xF5D9EE00,
0x211C090F,
0xF800ED32,
0xF6DE2721,
0x0AE8E9DC,
0xE9170714,
0xF2E9CDE9,
0xF7180ACD,
0x0B2FFEFE,
0x1510FFFE,
0xF6E61B04,
0xF806ECDD,
0xDDC3EAE6,
0x04301504,
0x1E07170C,
0x08060C1A,
0xEBD3DFEA,
0x020E0703,
0xECF0FA06,
0xD5F0D6DA,
0xE1D3B0E7,
0x19E13F1E,
0xEC1E1DFF,
0xCE02EB0E,
0xFA04FDFC,
0x101A0F18,
0xE70D00FB,
0x15EEFA01,
0xF21EE4EB,
0x05EB07D6,
0xF2F60303,
0xC2E4110D,
0x1B0E05EC,
0x02F10A1A,
0xE43A3520,
0x0110D9DA,
0xDFDFF4F7,
0xE8E7EDF5,
0xD3F702E9,
0xE1E408E7,
0x06E329F5,
0x06200704,
0xFADEE11A,
0xFDD1F30B,
0x12EE17F6,
0xFDE4BBAC,
0xF7F20017,
0xF112FAEA,
0xFAE014FC,
0x080B09EE,
0x0FFF2404,
0x110E0907,
0xFE1D00EC,
0x03FF0228,
0xF8132712,
0xF406050A,
0xEBD00304,
0xC9F90919,
0xFD1ECBDB,
0x1DF91305,
0xF7FA07DE,
0xFBF9EDFF,
0x121AF902,
0xF9FD0409,
0xF6001402,
0xEC1702F0,
0x070514EB,
0x0423340D,
0x141EFB11,
0x0406F7F9,
0x1602130B,
0x120B0805,
0xFAF70A34,
0xF409140F,
0x1DE2DEC2,
0xDEF5F305,
0xF9EDC304,
0xF3E11503,
0xD0FD03EB,
0xBCFEF408,
0xF9F61BEC,
0x0B0F08E2,
0xCEF60503,
0xF3EFE5EF,
0xE9DAEBE1,
0xEAF9DFF7,
0x16EFE7ED,
0x1A151101,
0x2D1619FF,
0x19011D19,
0x2E23071A,
0x05020B31,
0xCBF608FF,
0xD8E1FFEA,
0x27F3E1D8,
0x0425180A,
0x2000F61C,
0xCADBDD05,
0x07F806E4,
0xD2F7DDF6,
0xE7B9B5BB,
0xFB01F5F8,
0x0D03E028,
0x271CFAED,
0x0737DFFC,
0x2D1A1A02,
0x01F1D4DC,
0x220DEADB,
0x17290616,
0x031113F5,
0xECEFF1F2,
0xDEE8D9E0,
0xE8D1E7D3,
0x242EDDFA,
0x1905FD0A,
0xFA0AEAF9,
0xAEC71514,
0xDEF3DCE0,
0xF7ED02E8,
0xF4FEEEDA,
0xE50EFAE9,
0x28281309,
0x1A00F1E2,
0xFA01DF2C,
0x0CD414F5,
0xE614221B,
0xF2E6F7F1,
0x23F6E119,
0x0933E0F5,
0x2904ECF3,
0x1C01FCF9,
0xD0D61716,
0x321F03ED,
0x0808D814,
0x04FB0E26,
0x1A05BDC3,
0x0EF7EDFC,
0xEFE50345,
0xF2E11401,
0x00E0ED19,
0x11083B05,
0xF92D02F3,
0xCDF5F5F8,
0x1DEFCCEA,
0xEF071405,
0xFA1AD5D0,
0x25E208ED,
0x13FCE8F1,
0xE9FF1113,
0xFA0F0321,
0x01FD0F20,
0x0B001FDD,
0xFE0EF7E0,
0x0FE6101B,
0xE9FB1B11,
0xF7FDEAF4,
0x09F1EFC6,
0x16000F15,
0x020BEEFB,
0xFAF91B24,
0x0F2114F4,
0x05000C03,
0x090900E9,
0x04EDDDED,
0xF2FFE904,
0x230A0104,
0x10F929EA,
0xF93018F5,
0x1C01F319,
0x1F0D0C00,
0xED151E2D,
0x0D140704,
0xC8F7070B,
0xD31101DC,
0x1917F5DB,
0x1A0FFA05,
0xEAFAAB11,
0x20DBF2F3,
0xFCD20203,
0xE201F010,
0xF7052AF4,
0xF81C21EC,
0xA4EFD0F8,
0xE3CBDCD7,
0xE9070B01,
0xF6FB00F9,
0x16F1FEF3,
0x1C12F105,
0x1F0CEA17,
0x1AEFFC00,
0x0EF7E935,
0xEFC92145,
0xD9EE1705,
0xDDED2812,
0x2602F7E9,
0xF60F2B1E,
0x14EEE10A,
0xCBCCD4F5,
0xE9D8080B,
0xA604FBE9,
0xFBCFCFC8,
0xF9FCFC00,
0xFEFEFEFD,
0x0206FDFD,
0xFEF8FCFB,
0xFB00FDFA,
0xFBF6F6FB,
0xF9F7FFFE,
0xFCFA0703,
0xFC050300,
0xFA0403FC,
0x050406FC,
0xFDFFFCF9,
0xFAEEF903,
0x02F7F601,
0xFDFA0100,
0x0003FCFE,
0x05F7FAF5,
0xFCF6FD07,
0xFFFA00F8,
0x04FFFA06,
0x03FCF804,
0xF9FC02FE,
0xFBF6FF04,
0x01FCF8FC,
0xFEFB0007,
0xF805FAF7,
0x02FAFFF7,
0xFB0705FD,
0x0302FFF7,
0xFF02F8F8,
0x00FCF805,
0xFF02F7FD,
0x030206FB,
0xFE0202FB,
0x01FCF6F9,
0x0402F804,
0x02F7F7FC,
0xF8FC0001,
0xFF01FAFB,
0xF9FFFE05,
0xFF06FDFA,
0x040503F9,
0xFEF702FF,
0x03FAFBFD,
0xFD000201,
0x02FF0002,
0xFA02F7F7,
0xFC01F9F8,
0x00FC07FC,
0xF9F60407,
0x08FD0103,
0x0204FAFE,
0x02FCFEF9,
0xF70604FC,
0x02FAF9FE,
0x07F904FF,
0xFFF9F9F8,
0x0302FBF8,
0x01F60104,
0x05FDFE03,
0xFCF6FBF9,
0xFC050400,
0xF8FE0307,
0xFAFDFF01,
0xFDFEFCF8,
0x0105FAFF,
0x00FDFDFE,
0xFDFF02FC,
0xFA05FEFD,
0xF80600F7,
0xFDFFF6F8,
0xFFFE0301,
0xFBF804FC,
0xFAF90000,
0x03F70605,
0x050104FF,
0xFFF7FD07,
0xF905F804,
0xF6F70703,
0xFE000301,
0x0102F701,
0x01FAFF02,
0x02FBF701,
0xFFFBFE05,
0xFB06FB06,
0x02FA0400,
0xF803FA04,
0xFF00FA05,
0xF7040604,
0x0101FD00,
0xF9F6F901,
0xF70004FF,
0x01F80505,
0x00F8FE00,
0x00FEF3F7,
0xF4FFF8F5,
0x03F306FB,
0xF302F8FB,
0xFEF8FAFC,
0xFFFBFCFB,
0xE7FAEDDB,
0x06E9E1E4,
0x0D17E4D6,
0x04130410,
0x18001A15,
0xFE222C05,
0x300ACFF8,
0xCDAA09F4,
0x0A070D1B,
0x0B1BFCF6,
0x1DDB1A14,
0xFA2B1419,
0xDDD62629,
0xE0F5F3EB,
0x0109DACE,
0x1744351D,
0x0F2F2DF2,
0x1F2300E4,
0xED2D200A,
0x03FF161C,
0x090FFCC6,
0xFFC3C019,
0xC6F8141F,
0xE814DEF8,
0x07F69DB8,
0x032204DA,
0xEEF6ECD9,
0x0401F4EF,
0x0AF6FC0F,
0x0D0D0806,
0xF20702F3,
0x10DDF519,
0x01EB140E,
0x020F0106,
0xF9DC130F,
0x0B0403E6,
0xF3F5050D,
0xDD0911F5,
0x0C221614,
0x0F39F5FE,
0xEF0B11DB,
0xF4F4E5D7,
0x0103C4DF,
0xCBE8ED34,
0xEB0722F4,
0xFED6E2D9,
0xE1B6C6FA,
0xDEFE0533,
0xFE151808,
0x0EE9EDD7,
0x0B04F209,
0x0AF9FF1E,
0x10E81237,
0xE50AFC27,
0xE5EA1109,
0x05411601,
0xE01FFED7,
0xF0D120F1,
0xBE0519D8,
0xEA1AEBC9,
0x13EDC0DD,
0xD7A4EEF3,
0xF403F22B,
0xF41F150A,
0xE310EF07,
0xDA22EBF4,
0x3900E0E5,
0x1CF1F3F8,
0xF3DFFC2C,
0x0D1810F9,
0x13271CF4,
0x0123FF14,
0x1E13E1F4,
0x04FDF900,
0x26F90606,
0x22C1E804,
0xD903CC18,
0xEFE7DD0D,
0xE2FD0A04,
0x12110CDC,
0xF4F5C9F6,
0x12F5F40B,
0xDEC6E7E2,
0xD3FACAF3,
0x1014EFD8,
0x29FECF07,
0x00D9E308,
0xFCE21A10,
0xE1F9150D,
0x0CFD1318,
0xEAF712FB,
0x202102D5,
0x0F14E706,
0xE6FFF1FA,
0xF0160920,
0xEDFB0AC6,
0x05DEEEE4,
0xF408F809,
0x091F2E0B,
0x4A42ECF9,
0x0A010514,
0xF0F2F832,
0xF110FC0D,
0x2DE4E9EA,
0xFB11F21B,
0x2CF9C2D9,
0xEE04FBE2,
0x1AD4F2D0,
0xEFD3D62F,
0x0C203B13,
0x33FE09C6,
0xF7E00033,
0x0D101916,
0xFBF5FF0E,
0x19070800,
0xF8FA11D4,
0xEFE70328,
0xEBF4190B,
0xF6EF150E,
0x0E281401,
0x00140C01,
0x10060ADE,
0x1920CFF0,
0x05F0DBF8,
0x1EE6D409,
0xF9F3F9DA,
0xF80F0218,
0x37242007,
0x18F515F0,
0x05DEE024,
0x06FCC1E6,
0x0FF50005,
0x000A1D0D,
0x214728FF,
0x2020E813,
0x0EEAE306,
0x1308FFCD,
0x420FF40B,
0xF6F0F7F7,
0x0ADEDF00,
0xFCBCEFED,
0xFD09FF21,
0x0101302E,
0x0FC4DDAE,
0xFCD80124,
0xDBBCFC00,
0xD6D7D8FD,
0x00F8101E,
0xE2B502DD,
0xD8E9C6BD,
0xEEF5E516,
0xE6D8F8EF,
0x21FAF5FB,
0xF3141604,
0x1E07F6F5,
0xE8C9CCED,
0xE0DA1FD4,
0x0518F9EF,
0x18DBF4EA,
0xDAC20136,
0xEBFD351F,
0xDC18142F,
0x010E1CE7,
0xF8F1FCFE,
0x1FBAE0D4,
0x0B12E5D7,
0x1DFDF010,
0xD6DBDCC1,
0xECDADEC2,
0xFDE1F6E8,
0x15FED4F9,
0xF4022C27,
0xE4E92418,
0xFA0913EC,
0xE0E8E9F0,
0x000B3D34,
0xDC25282A,
0x0BF7D4DC,
0x0CFAE4F1,
0x19E7FD1B,
0xD1E60F35,
0xF9231BFA,
0x1509F7E6,
0xEC1AF2E8,
0xFF43FF1F,
0xE70C2B26,
0xE20DF1DD,
0xE8DCDBBB,
0xB2091517,
0x05F116ED,
0x0CF9F809,
0xFEE0F024,
0xFFE2C7FC,
0xF40D16F6,
0x020DEAE6,
0xE40E3D35,
0x2B402B0F,
0x0EEE2301,
0x020211FF,
0xFE13FB19,
0xFCFA0103,
0x08FBF7FE,
0x01FF07F8,
0xF8F5FDF8,
0x05030002,
0xF70105F7,
0xF9F80201,
0xFF00FC04,
0x01FE0504,
0x02FB00F7,
0xFF03FCFA,
0xF7FDFAF7,
0xF704F8F9,
0xF7FB0102,
0x02FEF7F8,
0xFCF70101,
0xF70102FC,
0x0401FB04,
0x040304FC,
0xFC000605,
0xFEFDF6F9,
0xFD03F902,
0xFEF903FC,
0x0604F8F9,
0x02F600FE,
0xFD00FD01,
0xF703FB06,
0xF7FE01F7,
0xFBFF0608,
0xF8060103,
0x02F6FDFA,
0x04F4FFF8,
0x01FCF4FB,
0xF8FA04F7,
0xFC04FDFE,
0x02FBF6FC,
0x05FA0405,
0x02FB0101,
0x0502F902,
0x030005FA,
0xFD0502F5,
0x0103F9FA,
0xFF0500FD,
0x000304FE,
0x05F8FAFD,
0x0304F800,
0xFC00FB05,
0xFAFC01FD,
0xFFFA03FE,
0x03FEFCFC,
0xFEF7FCF7,
0xFFFD04F6,
0xF9F802FF,
0xFF010005,
0xFFFB0605,
0x04F90402,
0xFAFCFEFF,
0xF6F6F902,
0x0207FDFC,
0xFAF6FBF9,
0x01F8FA03,
0xFDFCFFFB,
0x01FB02F9,
0x07F80602,
0xFCF9FDFB,
0xF702FB06,
0xFB02F7FE,
0xF7F6F708,
0xF2FEF7FD,
0x0502FAF8,
0x0504F8FF,
0x060400FE,
0xF8FFFEFC,
0xF4FDFBFE,
0xFCF9F9F7,
0xFA01FEF7,
0xF904F9F9,
0x02F705FD,
0x06030401,
0xF70205F9,
0xFEFE0100,
0xF8FFFBF8,
0xFF04F902,
0x07FFFD00,
0x06FBFAFA,
0xF8FB03FE,
0xFAFB05FE,
0xF80200F8,
0xFDFD01F9,
0xF50205F7,
0xF9010400,
0xFC0202F9,
0xFCFC0004,
0x06F805F8,
0xF8FF0100,
0xF403FAFF,
0xF502FFFF,
0x02F8F3F7,
0x00FEF802,
0x0401FEF4,
0x03F0EFE2,
0x140FED1D,
0xF7EA2526,
0x1100F2E5,
0xDEFE1624,
0x0505110E,
0x0601F6E6,
0xFE0CE5E6,
0x0DDDEC0F,
0x36271410,
0x1D0A1823,
0x0D201202,
0xF8F3CCEB,
0xF0E2E3F0,
0x1012EBF6,
0x30EBE00B,
0x1A153B41,
0xF913082E,
0xF4B8DA06,
0x06F40A09,
0xF212FECF,
0x06FED4CC,
0xF0DC070F,
0xE52122E8,
0x0212C6EC,
0x05F2D8D9,
0xEEFBE703,
0x01C13A21,
0xD4E1E21E,
0x1314ECF2,
0x1A2DECE9,
0x06030D1B,
0x16FC00FA,
0xF805F8FA,
0xFF1501F7,
0xF0FC0102,
0x010603CE,
0x04F3DCF5,
0x28F3E0E1,
0x2CD9FC09,
0x0F04F5EF,
0xFBF5ED23,
0xDD1008F1,
0x17DDDCC8,
0x0A0CEAEE,
0xFDE9F116,
0xEBCEDEFD,
0xFCE90FDE,
0x1515DFF0,
0x2E0F0FFA,
0x12F9F21D,
0xE2F1110E,
0xE60D000E,
0xFF2D06E8,
0xE7FB0621,
0xF8F50AE9,
0x1D0AF5FF,
0x17D92420,
0xC4C0E808,
0xEE27F7F1,
0x2E04F4CF,
0xEBF40D22,
0x04F7F914,
0xFB252BE1,
0x2A17E2F9,
0x2828DD20,
0x160606FE,
0x000AE5D6,
0x1D1303DB,
0x000DFE10,
0xF2060AFA,
0x0A0C1E23,
0x03E7FE24,
0x23C91303,
0xF705230F,
0xD91F13EF,
0x2124F3F9,
0xF0DB08D2,
0x040DF108,
0x0AE1F0D9,
0xF5E9DB26,
0x03CDEAE6,
0xE1CB2136,
0xAA2A3DFA,
0xEC1D01D9,
0xD2DDF8E2,
0x04F21E2F,
0xE7061511,
0x16090DEF,
0x11F6F6F4,
0x23020A16,
0xFA18F018,
0x0A09CA07,
0x0DFBFE14,
0xF4E5E305,
0xF5EFF3E6,
0x07FD0CF4,
0x182D1512,
0x0ED41DFE,
0xC3C6F111,
0xEFF917F4,
0xFC0903E0,
0x0A252626,
0xD7202E1E,
0x0703F7E5,
0xFE17D8D3,
0xDBF11AF3,
0x0B06FCDC,
0xFBE7ECCA,
0x07E7D50C,
0x1DE811F2,
0xFE32E201,
0xE9FCF2E9,
0x330CF9D3,
0x04060B0B,
0x291618E4,
0x09CBBC1A,
0x18F11F40,
0x2BFE2519,
0x320014ED,
0xE918EF06,
0xF2F81FF9,
0x0126E2ED,
0x06E8E3D5,
0xFADDF1D3,
0x0B11FBFD,
0x0C01F4FA,
0x0618F3FF,
0x28EBF7FD,
0xFEF20104,
0x11E6D5E3,
0xF0D7DDEE,
0xE8E9F407,
0xD3F3F400,
0x011521E9,
0xF607F3F6,
0x090F05F1,
0xEFF2021D,
0xF00DFA15,
0x13FDF0C9,
0x0AF4E2F4,
0xF9FE0C0C,
0xF6F9E30D,
0x18D3D0D0,
0xFFFFE017,
0x1D201404,
0xF80E2EFA,
0x0510F2E2,
0xE8F4DCEB,
0xECE7EEF3,
0x1E1DEEF8,
0x0C16ED05,
0x0D051EEB,
0xFC2115F0,
0xF5FD0E00,
0x0FDFDDDF,
0x100304F4,
0xE90CF303,
0xF6EAF2FC,
0x01FCD10E,
0xF7B9DEEE,
0xCDCCE91D,
0xEEEA0EDC,
0xF00DF129,
0x030B1B18,
0x04FD04FA,
0xEDF0F4F9,
0xD708F0D8,
0xE9F5F7D8,
0x06FB02F7,
0x08F8F9D0,
0xFED9DD13,
0xD9D30807,
0x08F9EC01,
0x0F0AFEF5,
0x02D9D5F5,
0xEBEE00D4,
0x1CF0F7F8,
0xFBE0FCF1,
0x00FAFCF9,
0xF4DFE5D0,
0xF2FE1C04,
0xE8F802F1,
0x1FFF00F7,
0xE3F91EEC,
0x090D0428,
0xC9DED7FD,
0xF4EFDEF6,
0xFC0AFDDD,
0x00180EFA,
0x0AFDE6ED,
0xDEE5E010,
0xE7F1FD18,
0x01120903,
0x10F7E9EA,
0x21F9FF26,
0x0B01F503,
0xF22E1712,
0x160D210F,
0x1016180C,
0x1F1C11F9,
0xF002EFF9,
0xDBDBE8DE,
0xF1D9E4CC,
0xE9F4D008,
0xF0DEFBF2,
0xE3E8F104,
0xDCFB10F6,
0x1E0E25FE,
0x1D12FBE9,
0x17281D2C,
0x071300F3,
0xDBDB0037,
0xE31A1E01,
0xDDE71BF3,
0xF3D0D6FE,
0xF8DE23E9,
0xF7F2AFC8,
0xF8D9E1FA,
0xF2BDEA05,
0xF2E72402,
0xED36020C,
0xEFFDF905,
0xFA112107,
0x0AEDE8F1,
0x1619100C,
0x15F6FAC4,
0xEBCDE704,
0xF40CFE21,
0x021E23EB,
0x031D1504,
0x16FEDB13,
0xF3D90723,
0xDBF3F914,
0xC4E80D11,
0xB5D1EAE2,
0xE40B1AB3,
0xBFE7E5F0,
0x17F217ED,
0x09FB16EC,
0xFF290922,
0x08FE0902,
0xF6EF150D,
0x1F090F04,
0xF1DBC4DB,
0xFAE60112,
0xE7EDC8FC,
0x00070CF3,
0x2B1AFBD9,
0xFD121606,
0x15F3F6F6,
0xF7DEF615,
0xB50BE00A,
0xFCDD26DC,
0xF201E4F4,
0x1BFECDE4,
0xFDE8F00E,
0xF80AF001,
0x1B140F11,
0x0F09FBF0,
0x1C1FFA02,
0x1C09FA25,
0xFD050CF3,
0xFFD6F0F3,
0xDDE8000B,
0xE5F208FC,
0xDFFA0EFB,
0xDFF20401,
0xFD071102,
0xE41813F5,
0x06170AD5,
0x220BF0EE,
0x11E7D016,
0xF4AFDCF8,
0xD7D90104,
0x1DF3F2F2,
0x001C192A,
0x0B131DF4,
0x0B17151D,
0xF5E1FE03,
0x0921ECFA,
0x07EEFF01,
0x0B070525,
0xDDF6170D,
0xFD0FFA01,
0x0AD7F41B,
0xFCE5F3E8,
0xF2F21410,
0xEFDFF3FF,
0xD7E9ECF8,
0xED0900D9,
0x1606DDD9,
0x0F07C9EB,
0xDD080309,
0x25150601,
0x1801DDD7,
0xE900EEF8,
0x020F02FF,
0x2DC8C7EA,
0xD2ED0206,
0xF9F3F20A,
0xD6D2F5CC,
0xD1DC98D2,
0x13D5F6D1,
0x0912FB13,
0x0F2C05FF,
0x01CCF105,
0xF0F70D1C,
0x080812FF,
0xF7000D05,
0x05E304FC,
0x0BE4E412,
0xDDCC0B01,
0xD7020709,
0xF7EAFDFC,
0xEFED0CFE,
0xC3F9E1EF,
0xF3F9EADF,
0x07F3EEFA,
0xF1190A0E,
0xC5F40AFC,
0x0FE2F6ED,
0x1C0BF2DC,
0x2201FC1D,
0x15F91417,
0x0A0C1535,
0x0402FCF2,
0xF8F41D19,
0x211000E9,
0x0FDAE91B,
0x01EA1AFD,
0xF4F5F60B,
0xE50AFF03,
0x05D4D2E6,
0x021D1F2F,
0xE501FDE6,
0x1E00E6D5,
0x10070526,
0x0AEBF002,
0xC5D5D717,
0xFDEEE9EF,
0x2C23F2EF,
0x13EE1321,
0xEBF90104,
0x01070217,
0x24120B1F,
0xF6F6FD05,
0x150FFC00,
0x32D0ECF2,
0xE5F7041F,
0xDEFBE71B,
0xF6DAF5F8,
0x1F0ED9CA,
0x0EF0DF06,
0x0B031C13,
0x05EE00FE,
0xF105F2FE,
0xF4EA05FD,
0x031BF7D8,
0xE8D505E5,
0xF3200AF4,
0x0F0817FA,
0xDFF3E406,
0x15D9C806,
0xDFB5D4F4,
0xF5E6FEF3,
0xFDE80013,
0xFEEF0904,
0xFFF7FD09,
0xD7EF0BFB,
0xC8CEDE18,
0x230E07C9,
0xF8E31727,
0xF7F81510,
0xFE06DAE7,
0xFDFA0F15,
0x081B1206,
0x080FF10C,
0xFAF90509,
0x07160B0E,
0x140FFDEF,
0x233414F9,
0x0714F8E6,
0x03F300FF,
0xF2FCC01D,
0xCA03000C,
0xED01EFFB,
0x04F6E6E1,
0xF0EBD6F1,
0xE4EFF1CA,
0x0415E2D8,
0xFE14FF2E,
0xFEFCE6F9,
0xC9F41AF3,
0x0CEEEABF,
0xDD153B01,
0x311D2003,
0x04F8D0F0,
0xF6EED8EA,
0xF7FAF800,
0x000A0200,
0x0C09F912,
0x08F8041B,
0xFAE2F90F,
0xF4FCE5FD,
0xCDB9B5FF,
0x261C0AD9,
0x0441EE17,
0xF312FBF9,
0xECFDFBFB,
0xE6E6F3C3,
0xCEFC00CF,
0x2128EAD8,
0x0CF0FFFC,
0x0800E7F0,
0xFC290EFF,
0xE8110528,
0x05260DFD,
0xD1F6DAE7,
0x10210CF3,
0x06F6FAFE,
0xFCF1F316,
0xF8EE1BFC,
0x0610230C,
0xE32C3A2A,
0xE6F3ECF5,
0xF20D1140,
0xEC321F19,
0x01010ADB,
0xFA04FEFC,
0xB3CE2418,
0xFD080EAD,
0x0607F8F5,
0x27E10414,
0x2727FC12,
0x01010609,
0xE2C4B614,
0xFA16DEDA,
0xDEDDF820,
0x01EC0AE4,
0xE60DD7F4,
0x180008F4,
0x2A0FFD1F,
0x092E1A1D,
0x0A252722,
0x161A17FC,
0x0418FB06,
0xF7050F04,
0x1A0401F1,
0xFD022E38,
0xF10810F4,
0xFFF6EBE6,
0x01F306F2,
0x17F6F022,
0x11FF0F17,
0xF8C8FE0D,
0xF915182C,
0x02061424,
0xD7F51216,
0x18FCFED3,
0xF8FC07EC,
0x301A0EE1,
0xF708DDFD,
0xEEEAFB0B,
0x181014EE,
0xED1A18E8,
0xFF1818E9,
0x17361622,
0x13231EF2,
0xEEF1F808,
0x080A0003,
0xF1FF250D,
0x0E2B0027,
0xDB100C12,
0x2311DDD0,
0x0414F71D,
0x31EB08EF,
0xEB021009,
0xDE0CFCEA,
0x09040DF5,
0x031E22EB,
0xDBE5EE02,
0x10F12008,
0xE1192402,
0xFAFCFFE3,
0x0002FDE5,
0x3321FD41,
0xEF05EC13,
0x0D2015EC,
0x221D0D1A,
0x1009FD2D,
0xD0D7F804,
0xB5D11505,
0x19EACBB9,
0xD9EE1209,
0x0DFFE216,
0x191D16F3,
0xFFD708DF,
0x92DCE1F2,
0x05CDBA90,
0x0F180B00,
0x13EB0513,
0xE4FD2D21,
0x0B261A03,
0xE1F9EFF8,
0x1301EAF8,
0xDA201DF0,
0x27FCC3AE,
0xEFDAC915,
0x1E1B242D,
0x281715DA,
0x1005EB1E,
0xEAE3271F,
0xEAFCE9EA,
0x3630FAE9,
0x2528FFC6,
0x28151531,
0xDFF8052B,
0x32F81900,
0xFE132617,
0xD6121A1C,
0xEC0000E9,
0x2013DDFB,
0xF5E5F707,
0x09E0E2DD,
0x210B02DB,
0xF80DFD00,
0x17EFD6FB,
0xF3FE050C,
0xF8E6091F,
0x0BF5FAF5,
0x0DE6DB15,
0xEEDF4232,
0x082A10FA,
0x08FE00F4,
0x07F3F016,
0xF600FED6,
0x0312F002,
0x131A0504,
0x1E0FE6F4,
0xF9E10926,
0x0D112304,
0xF90C01F4,
0x27F5F1D6,
0xD1ECF024,
0x0210060B,
0x16FD00AF,
0xEFDCDBFF,
0xEAF50106,
0x090DEDDB,
0x2819F6F1,
0x02EFF219,
0xFF004035,
0xD31C00EC,
0xECEF0AEB,
0xE6CCDA03,
0xF4091CF9,
0x2322ADC2,
0x18C0DDF9,
0xD9EAE73E,
0xF4E12B05,
0xD306F61A,
0xE5FF2EEA,
0xEB474019,
0x160D0A07,
0x05060402,
0xFC0508F0,
0xDD09F7D2,
0xC8FAF8D9,
0x451100C4,
0x08FFE8D9,
0xF7FCFD3F,
0xE105E7E9,
0xFBF705F9,
0xE4F705F6,
0xE1B7F330,
0xDA001BF9,
0x0C1BE5CC,
0x1F0FDF24,
0x10E6121D,
0x00D3F6F8,
0xF8071D15,
0x0E26E1E7,
0x03AECFEC,
0xCB0917E8,
0x103610F5,
0xDC18FBCF,
0xF5E5F107,
0xC1363428,
0xFEE522FA,
0xFEED040B,
0xF3DCEDF6,
0x00E30314,
0xEFF90300,
0x2011ECEC,
0xE7E00D13,
0x040E0A1E,
0xF80708FE,
0xEF082801,
0x08171904,
0xDFDAE81C,
0xECFCE8F1,
0x04150CEE,
0x16E5DFEF,
0xC504EB13,
0x171FFAE6,
0x14E4E6CF,
0xE9E01504,
0xDFE3FD17,
0x03FA1405,
0x34D7CD22,
0x0BF11630,
0x140413E6,
0xCDFB1435,
0xFAEDE5EA,
0x0AE8FAE2,
0xFBDCEF1A,
0xF1FA2D27,
0xFB9FEC01,
0x07BC03DF,
0xDDFAE301,
0x0811DFEC,
0x1516010D,
0x100D19E4,
0x1208BE12,
0xEAE50F1B,
0x1105F4F8,
0x1D051B3D,
0xF5F10118,
0x01E2E6FA,
0x2825FADC,
0x0E1D1B31,
0x032BD6E8,
0xFDECFEE4,
0xF212FA04,
0x1C12F5FC,
0x01F1E8DF,
0x2208DA01,
0xFBEDD7E4,
0xF6B3C6ED,
0x0AF3E807,
0x020DFB26,
0x0B07FAFF,
0xF3BEB9E5,
0x01FBFE01,
0xFBDB11FB,
0xD9B8E92C,
0x281B39EC,
0x08E6C9D6,
0x06F0E3F8,
0xED05E402,
0xE7011AF4,
0xFF28E1C5,
0xEF13FBF4,
0xDB150411,
0xD0EBF40C,
0xF9E3FDC1,
0xF9E81C08,
0xF8EB06F4,
0xE1E9F406,
0x17E9F409,
0xEDF6062F,
0xEF030324,
0x22F6F4FB,
0x2CD4E5EB,
0x1BEFE226,
0x18D7F41C,
0xFAF7B5BF,
0x2500CDDB,
0xBBCDE8FD,
0xF0FB0024,
0xF5F5FCD0,
0x11F6F21A,
0xFDE92513,
0xE1FCE1EA,
0xD30C09FD,
0xE0F4EB03,
0xEDCDF4C9,
0x0E09F3ED,
0xEC03EF08,
0xFFF61B2D,
0x031A1BE0,
0xF019050E,
0xD72641E9,
0x2B550E00,
0xC3F5050A,
0x0F00F8E9,
0xF31114E1,
0xF3E0C9E2,
0xFAF3EDDA,
0x2117F4C7,
0x04FDFBFE,
0xE1E3D4E4,
0x1C251607,
0xF1E900FD,
0xF40D1BFB,
0x151921F6,
0xD7CE1214,
0x13071C0F,
0xD013120E,
0x11141211,
0xE20FF6F5,
0xFBC6F9CB,
0x02FAC2D2,
0xCADAC906,
0xDAE808F4,
0xEFD4E6E9,
0xC7E40DF5,
0xF4FB0AEE,
0x0405EBEA,
0x431C0D25,
0xFF00F00E,
0xE7D60E2E,
0xDFFA191E,
0x01200EF4,
0x0DC7D6F3,
0xD7EA20FB,
0xF9DFFF04,
0xF3B6E40C,
0xF6CEC9E7,
0xE70E0E17,
0x06131AF1,
0xF0CF0004,
0xE1FF15FB,
0xF3FACD03,
0xE9081926,
0x1FF807C5,
0xE2C4F507,
0xC7D5FE3D,
0xEFFC0BD7,
0x172BE5D8,
0x0F13FF10,
0x07F6B0EA,
0xF1D50003,
0xCD0101F7,
0xDFE1F7EF,
0xF90FFCA3,
0xDFE9D1DA,
0x04EFFFC6,
0xDAE1CFF6,
0xF2F10A11,
0x101CDE03,
0xF4F21705,
0xFDD1E4FF,
0xE2E6C8C2,
0xFDF7FF14,
0xE9F70901,
0xEDE910EF,
0x1414DDD8,
0x240B08E8,
0xE4EBDFF9,
0xE5EEFF0F,
0xE62CEDD5,
0x012215E9,
0x151403FF,
0xE7FE0D0A,
0xF2EAF7D2,
0xE107E803,
0x1CDA0B0A,
0xE00DE3F3,
0x1EFCFAF3,
0x0D0C0403,
0xECFB0D10,
0xFEDFE1E5,
0x0201060B,
0x07E6F908,
0xEAF8FE32,
0xFBEBF003,
0x1CEADCF1,
0xC0DB090C,
